/**
  ******************************************************************************
  * @file    network_data_params.c
  * @author  AST Embedded Analytics Research Platform
  * @date    Fri Jun 14 16:36:55 2024
  * @brief   AI Tool Automatic Code Generator for Embedded NN computing
  ******************************************************************************
  * Copyright (c) 2024 STMicroelectronics.
  * All rights reserved.
  *
  * This software is licensed under terms that can be found in the LICENSE file
  * in the root directory of this software component.
  * If no LICENSE file comes with this software, it is provided AS-IS.
  ******************************************************************************
  */

#include "network_data_params.h"


/**  Activations Section  ****************************************************/
ai_handle g_network_activations_table[1 + 2] = {
  AI_HANDLE_PTR(AI_MAGIC_MARKER),
  AI_HANDLE_PTR(NULL),
  AI_HANDLE_PTR(AI_MAGIC_MARKER),
};




/**  Weights Section  ********************************************************/
AI_ALIGNED(32)
const ai_u64 s_network_weights_array_u64[10209] = {
  0x40054966400aa3ceU, 0x3e672322bfb63db3U, 0x3f59bfca3f56a410U, 0x3c3355e8407eb20cU,
  0x3fee56e13fe6a8fbU, 0x3db8b07ebdb05f35U, 0xbe5aa668be8c9824U, 0xbe49cf1bc011f20aU,
  0xbe16044ebe62e099U, 0xbe022ababd323302U, 0xbcaef1073c5443bbU, 0xbdeef3a43fd814f5U,
  0x400e34be400a4558U, 0x3e848b4fbfa3b14dU, 0xbefbafc9bef44e46U, 0xbe4998fbbfd4aea5U,
  0x4043275a403662fdU, 0x3eb302043f73ab74U, 0xbf479d09bf43a877U, 0xbeb2b1eebfd79133U,
  0xbf3eddb1bf0bc8f3U, 0xbe153bff3e974055U, 0xbe3ad830be50fbe5U, 0xbe88cfd53fece413U,
  0xbf7b84e6bf82711cU, 0xbea72afb3f1ef1c4U, 0x3f8bba9f3f6b1b7dU, 0xbcefe5494056d3e2U,
  0xbf8af578bf9a829dU, 0xbe98b8a6c06ad4f3U, 0x3f1e36903ecefb20U, 0xbe71259a4004758bU,
  0xbe601b7abe930a01U, 0xbe9737333eed16b3U, 0xbeaa0bdcbef4c3f2U, 0xbea0966a3e149c74U,
  0xbea412d1be22e1d7U, 0xbe88f4513ed092d4U, 0x4012384640165074U, 0x3e0423203fe8b418U,
  0x3e94390e3e73e572U, 0xbe51de3e4022d7eaU, 0x3fc1919e3fbe9595U, 0xbd89c3bbbfa49318U,
  0x3fd570c83fcaad7cU, 0x3d82c87b3f9c88ceU, 0x3fc4ccf93fce113cU, 0xbb8b9cadbecf68caU,
  0xbee37616bee8daa9U, 0xbe711094bfa9e47fU, 0xbf057234bebe65ccU, 0xbdd23dc8c042ba20U,
  0xbd70024cbcbb9a3eU, 0xbe1220ec3fd19787U, 0x3fc217223fbdf3feU, 0x3e32d422bea54bc1U,
  0xbe9f02fcbf12f3c2U, 0xbe32ec473fec4feaU, 0x40135216400f2c42U, 0x3e7d7a4abf729498U,
  0xbfac5740bfa304ffU, 0xbec6ee1abf8abb77U, 0xbf2e770cbed9a794U, 0xbe66a2663f2724a3U,
  0xbd8a9e3bbe8e5378U, 0xbe3921fd401fc0d1U, 0xbeceedfdbf0c09feU, 0xbe5066b7403e2417U,
  0x40278674402854fbU, 0x3e95b8df40094851U, 0xbf9ee60fbf9ef579U, 0xbeb0b03bbf26242aU,
  0x3f7d9b003f830c8fU, 0xbca05f4b3f780c47U, 0x3f19be883efab019U, 0x3ab69155bf2f1d6fU,
  0xbeb37834be3f8c9bU, 0xbe25e49a3f8ab07dU, 0xbea4097bbea3cd44U, 0xbe9b3c22bfd84794U,
  0x40285024401f70cdU, 0x3eaaccd53fa086c7U, 0x3eea60c33ef831f7U, 0xbc222abf401e8034U,
  0x402f60674029eadaU, 0x3ef12086bfab71deU, 0x3fabff783fbd6ebeU, 0xbdd739ed3f846260U,
  0x3fe786e33fd3c046U, 0xbd75fafc3f66b8a1U, 0xbeefd7dfbeb18da7U, 0xbe74ad1fbf83b772U,
  0xbea42abbbeb97d7aU, 0xbddd95764044754eU, 0x3e2d95fa3ee2075aU, 0xbc47448e401f4321U,
  0x402b27fd402edd25U, 0x3ea41ea4bf7481b0U, 0xbe5f8e91bee68204U, 0xbe8724ee406e275dU,
  0x3f817ded3f7e5b2eU, 0xbdda0f4abfc8f918U, 0xbf3548f5bf412355U, 0xbed15fa6bf710c0fU,
  0xbf08110fbe9e9083U, 0xbe93db73bf85ea00U, 0xbe6d988abdcb207cU, 0xbda95faac01457dbU,
  0x3e262d4a3e46a247U, 0xbd2c75143f715549U, 0x4028f0954025368aU, 0x3ea6eb163f5eb856U,
  0xbf87bc2dbf82279aU, 0xbe5937b6bf18c91fU, 0x3f22477e3f1f15e8U, 0x3d29a4083d50549bU,
  0x3ecc07203eb836adU, 0xbe779d0cc000ff3fU, 0xbeafbe7ebea4ac97U, 0xbe489e89bf940b20U,
  0xbe42a5adbe0b3e30U, 0xbdff6ea2bfe3a881U, 0x401b2a7f40227bd7U, 0x3eafbfb93f9b3e9dU,
  0x3f0c8ff03f05febbU, 0xbc7c820fbee1ddfcU, 0xbdfc3a5d3d5e130cU, 0xbd304672be073745U,
  0x3deed0da3d46c64cU, 0x3d185568bd6297b0U, 0x3c9d1ca8bd893fe5U, 0x3e041e93bcdeb404U,
  0xbdde84773dcf0166U, 0xbd7fa130bdfaf6c9U, 0xbdd13837bdaff5e4U, 0x3e0cd367bdf62a0aU,
  0xbe05dd2fbdae8790U, 0xbcaa99a4bd5b3264U, 0x3ba6ff603e0bd901U, 0xbd4be9223d9114c0U,
  0xbdba997c3c91eb90U, 0xbdc8e95bbc005af0U, 0xbaa3ce803dcf5946U, 0x3db0ce12be02846bU,
  0xbd6f34d63ca462d0U, 0x3ce19500bde4f2e3U, 0xbd25f1723e03f179U, 0x3c8f2c68bda99d0cU,
  0x3e02d8693dfba272U, 0xbc0168b0bd93e91fU, 0x3dfbc0d23db22e08U, 0xbce32f3cbcb66be4U,
  0xbc0393503db35324U, 0xbd0332f2bc3a0310U, 0x3cfefc98bda2794aU, 0xbd0e8302bd13a5a2U,
  0xbd0b3c90bdf46e83U, 0x3d04f2d8bd64b8aaU, 0xbd97e2e4bdf93c50U, 0x3dbbe2babd84c607U,
  0xbd7d6100bd725598U, 0x3d9719663df7613aU, 0xbc8d1aecbe0c9374U, 0xbde7593ebcf47ce8U,
  0x3dea2b6a3de20766U, 0x3db362923d4f79c0U, 0xbd558fca3d2f02c4U, 0x3d6e2ddc3d8d5ca0U,
  0xbc55fad83ddb71beU, 0xbd90c923be082333U, 0xbe02bfd1bd8b1757U, 0xbd9a5d0e3ab98e80U,
  0x3c64a0f03dc476acU, 0xbdad27693cd8da58U, 0x3da24f50bd3fe71aU, 0x3d2d4cf43c0853f0U,
  0xbc7fa0903b0cbfc0U, 0xbd47ce2c3c257c20U, 0x3c5b43303d57267cU, 0x3d6a17703cda73a8U,
  0xbd3c3602bdd2149aU, 0xbcdf6864bd3465fcU, 0xbde77eb93da5812eU, 0xbc03fb603e045739U,
  0xbdb280433d91a244U, 0xbd989506bddaba76U, 0x3dde49c83d423e3cU, 0xbd1f1c50bd479c7eU,
  0xbd8d10edbcfe2ae0U, 0xbdd0194bbddfa4cdU, 0x3c8db648bdd844f6U, 0x3c9e07e0bdd947b9U,
  0xbd894e54bde3e8f6U, 0x3d111d60bd277882U, 0xbd44625abd1eaef0U, 0xbdcc7e9a3baef8a0U,
  0xbd2ac81ebd46d0ceU, 0xbb2d5400bd14779aU, 0x3d9f89363d77fe44U, 0x3d87267abe096d52U,
  0xbd08bb20bd9cdda9U, 0xbdb9ccd83c9e6a40U, 0x3d21dc34bdbb6d8dU, 0x3ddc602a3da8e26cU,
  0xb9dc98003d80147eU, 0x3d23c174bde0932bU, 0x3cb5b890be0260b4U, 0xbe0440d3bd347762U,
  0x3db5e24c3dc80756U, 0xbe05a187bc6dc1a8U, 0xbbb1c7e03d009930U, 0x3de2f6bcbad3ec80U,
  0x3dbcd4babdc9b642U, 0x3daeb896bdf63944U, 0xbd9f60c8bd4bdcb2U, 0xbde73be9bd94e269U,
  0x3d961822bd6f780cU, 0x3d12b5c4bde9ba3aU, 0xbddf906c3ddcc69cU, 0xbdc69147bdc9216cU,
  0xbde887cebdbd63f3U, 0x3de6dc7ebd80914dU, 0x3d94deeabdaaae43U, 0x3ce2ba88bdca00e0U,
  0xbd2c66f2bc8e8690U, 0xbdf97e2dbe0b9539U, 0xbd9a102fbd224f4cU, 0xbdf8c1f83dd5dbb6U,
  0x3d4944303bc82fc0U, 0x3d838faebc1ccee0U, 0x3dc2b32cbd5fae76U, 0x3deb9cca3dce2d28U,
  0x3d675e6839df2c00U, 0xbcf4da10bd89f31dU, 0xbe06250f3d66550cU, 0x3e08110d3dbf7c7cU,
  0x3db0e172be011722U, 0xbcc1e0ecbd5f3694U, 0x3d0aa49c3c4996f0U, 0x3de40566bcc4d8a4U,
  0x3d6a2ccc3c6609b0U, 0xbe051c0e3e0c3219U, 0xbd503aa8bc2e4fd0U, 0x3e001c75bdb7a9b6U,
  0x3d3354f43ceeddd8U, 0xbd7241563d810024U, 0x3cac96a8bda11843U, 0x3d11d880bda67836U,
  0x3c726fa03e01b0bdU, 0x3e08ee593dc24ef6U, 0x3dc5e7f23d64511cU, 0x3d3e9250bd8fe7a7U,
  0x3ff487543ff826d3U, 0x3d9d5034bfb683beU, 0x3f5e95fc3f46e9f1U, 0xbe16b38d4072688aU,
  0x3fbf99a73fc7ce66U, 0x3c21a5eebe7a0b36U, 0xbee1373ebf0857f1U, 0xbe9a1f0cc00aadefU,
  0xbeb7a23bbf02c9fbU, 0xbf00b554be1edf14U, 0xbe9471dabe68436dU, 0xbe6e0aca3fed571eU,
  0x3ff8fa7f3ffd8fb9U, 0x3db14ef6bfb5f473U, 0xbf213576bf1de808U, 0xbe9c256ebfce0ae6U,
  0x4039eb1b4030dcf9U, 0x3e011bcd3f21c5f6U, 0xbf81e502bf81ce80U, 0xbef948e5bfcab77fU,
  0xbf4fd6e9bf732c97U, 0xbf0f7d533d8a17a0U, 0xbe76d918be982330U, 0xbee9f0c63ff4e8edU,
  0xbf88478abf8666b0U, 0xbecca0f93f139f3cU, 0x3f64e7de3f3ca8cbU, 0xbea023914051e1eeU,
  0xbf8fa503bf8c39ccU, 0xbf0ad21dc06f4498U, 0x3e5c3de63ebda297U, 0xbe576b173ffdb292U,
  0xbedc2b7fbef86085U, 0xbee0a55c3eef3b01U, 0xbf0d2a48bede5976U, 0xbf047d503ec7195bU,
  0xbed335babea5a81dU, 0xbebb7eb53eef8795U, 0x4005093940069522U, 0xbddf712040002dbcU,
  0x3ccfc8b03d8c2e2eU, 0xbe87aaab402ae20cU, 0x3fa6e3373fa38c8dU, 0xbdf89b05bf86b0afU,
  0x3fc735213fb7e62bU, 0xbe45159d3f9a03baU, 0x3fb0f1543faeea0eU, 0xbe5d5a2abec0750dU,
  0xbf299710bef64687U, 0xbed35fcbbfa909c4U, 0xbf454d88bf17e93bU, 0xbf0877c0c048fd07U,
  0xbe184f4cbe82c16cU, 0xbe8b2b653fc18e77U, 0x3f92be753fa41fc6U, 0xbd57086ebdb63ba4U,
  0xbf112a8fbf1dd869U, 0xbeb6f3823ff60c9fU, 0x4000857b400bdcf0U, 0xbcb8150ebf919a63U,
  0xbfac1c4ebfb59faeU, 0xbf072130bf875ce3U, 0xbf1cca39bf214ef3U, 0xbf0614003f395ef8U,
  0xbef861e3bec65623U, 0xbefa2ebe401f6604U, 0xbf3d4393bf1c258dU, 0xbee6c0db4035edb2U,
  0x4012deb6401b5d0eU, 0x3da2a1fa400e10aaU, 0xbfaa4622bfa8b228U, 0xbf0ca836bef7cb4cU,
  0x3f20877a3f476589U, 0xbe0779eb3f942e6eU, 0x3edfafb73eb6f0f3U, 0xbe9a34d2bf0be2ddU,
  0xbf0e057ebf0917a7U, 0xbea7bff63f747c32U, 0xbe947af2be980786U, 0xbec57557bfc26fa9U,
  0x4015a707401f6577U, 0x3e28ab5b3f9054dbU, 0x3e0afa693da2ca0cU, 0xbeb821d0401c687bU,
  0x401d701740259df5U, 0x3d128458bfa9fe49U, 0x3f9b78003fa23678U, 0xbd30ba203f96fb6dU,
  0x3fbf1c403fc29868U, 0xbd2081653f650567U, 0xbf2ec24bbf27a944U, 0xbef9acb6bf9f8153U,
  0xbf0a320cbf282bd9U, 0xbecaa97c404609e8U, 0x3c0f66cd3e76b0fcU, 0xbe90376a4019272eU,
  0x401dc11b4029c835U, 0x3e3e680bbf9a9ac2U, 0xbf01f9abbec502a5U, 0xbe8171fa406789c7U,
  0x3f5804863f53b8e9U, 0xbd92ab70bfd3f972U, 0xbf738541bf77831aU, 0xbed4b36ebf70b289U,
  0xbf097816bf1d9dc4U, 0xbeb1fe99bf87ba88U, 0xbe8057d8bef0ac36U, 0xbe7801b7c01b1bc9U,
  0xbcce26913abf8e5fU, 0xbe921d673f47cd68U, 0x401b68e240257186U, 0x3dad1ed13f6a3a8cU,
  0xbf9a2421bf8773baU, 0xbebc7960bef6341fU, 0x3ea338203ed1e8f3U, 0xbeab437f3e8e7f21U,
  0x3c5171d63e468ecfU, 0xbebde6e4bfff5420U, 0xbe9b1f91beed2005U, 0xbebb8276bf96b45cU,
  0xbeffe4cbbf081c32U, 0xbeaad1a0bff2ec8fU, 0x40131e904013be36U, 0xbd4d834c3f8d0b50U,
  0x3ea6434e3e7cd670U, 0xbea9b459befa62c5U, 0xbfa85d95bfc2cd79U, 0x3ecde1663fa4cc22U,
  0xbe86ec21be98a882U, 0x3f38d651c07fb10fU, 0xbf92d675bf9577c9U, 0x3f1882c13e9c956fU,
  0x3f6db0d73f5ff2b8U, 0x3f6da582400ab8b4U, 0x3f8057813f4733d8U, 0x3f6992b5bd976503U,
  0x3f30b9b03f48df14U, 0x3f367defbfded324U, 0xbfa3d619bfb72c8bU, 0x3f01b8f93fa2991cU,
  0x3f850d793f7bdb40U, 0x3f65697a3fc2eedcU, 0xc019e604c00ef7edU, 0x3e9c6c7cbf315fe4U,
  0x3fb199cb3fae3a10U, 0x3f424f253fe97fb5U, 0x3facc3763faafebeU, 0x3f71798ebd0b8d5cU,
  0x3f4b58a33f3fac5aU, 0x3f326dadbfed19cfU, 0x3fb2d6883fb7fcadU, 0x3f46d9e6bf3eaa62U,
  0xbe426dd0be93b26bU, 0x3f183788c0578fb4U, 0x3fd9c4093fd473dcU, 0x3f76c8a6406e1f49U,
  0x3e1ca2863e7c0410U, 0x3f321a45bffeeab9U, 0x3f2f1bf03f565813U, 0x3f53f420bf28e976U,
  0x3f65b1b13f870db0U, 0x3f4a56cbbee3d8acU, 0x3f5e7c4c3f2fd5adU, 0x3f652440be8bd07eU,
  0xbfc7918ebfd852b6U, 0x3ed22687bfede6e2U, 0x3eeeed0c3ed4e7d3U, 0x3f18419cc03322cdU,
  0xbf34c31ebf1c6651U, 0x3ef872b13f8527e1U, 0xbf68548cbf620564U, 0x3f11cf48bfaf07c7U,
  0xbf7c41b4bf5bb568U, 0x3f07b9593eba9085U, 0x3f7eb3673f82b2e3U, 0x3f543b1b3fad0da1U,
  0x3f8412b83f8f93f2U, 0x3f6c2e054048ee9aU, 0x3f106cbb3f138216U, 0x3f494260bfbb0405U,
  0xbf3edf19bf18b724U, 0x3f0169a53dc901beU, 0x3f7face13f657c67U, 0x3f341796bff621b1U,
  0xbfd1c890bfd70a2bU, 0x3f0c99233facd7a3U, 0x3fed3b883fdbd1e0U, 0x3f876e243f52b0c4U,
  0x3f87181d3f8cfb47U, 0x3f712c7abf7693d8U, 0x3f3d21ab3f2a9e8fU, 0x3f661809c02f9558U,
  0x3f7e56303f78af57U, 0x3f731495c03e3506U, 0xbffd91bcbfec589fU, 0x3ed243bdc00a8860U,
  0x3fda5d593fe6501dU, 0x3f687ed83eba1bf6U, 0xbe44e968be444355U, 0x3f2b61bcbf7433c5U,
  0x3be7c7cd39c5a570U, 0x3f49c9773e6a2f80U, 0x3f8093343f82a8c9U, 0x3f301d1cbf830b30U,
  0x3f6d662a3f71953aU, 0x3f44cd223fc4f0dcU, 0xc000b5dabff8e63bU, 0x3eb59082bf98ed6fU,
  0x3e82d9253e6035ebU, 0x3f252401c01f096dU, 0xc008f963c0023b4aU, 0x3ea365253f9bec5dU,
  0xbf260c42bf0fbc66U, 0x3f1192dfbf84724fU, 0xbf8e4c88bf83674bU, 0x3f2a5fbdbf63ec81U,
  0x3f8b7e243f8a9160U, 0x3f5ca42b3f76632eU, 0x3f6d63fd3f628a9aU, 0x3f511394c04334d2U,
  0x3ed9a25a3ee297daU, 0x3f508fe9c0254129U, 0xc0048e9dbffbecd8U, 0x3e9a912d3fb5441cU,
  0x3f4c78ce3f6e8535U, 0x3f4e28e5c072bb9bU, 0xbf012eb0bee0f1d6U, 0x3f2c1f293ff798ddU,
  0x3fa5f6923fa88ffbU, 0x3f666c153f635c8cU, 0x3f7d43b33f7752b9U, 0x3f4937043f8e21beU,
  0x3f2414243f493162U, 0x3f34fc4c401960a6U, 0x3f09c3283efdbc01U, 0x3f51998bbf73a889U,
  0xc005ae23c000dc5eU, 0x3ef2eda6bf8456aeU, 0x3fbf6ddb3fc2c9b0U, 0x3f7962e13eb77ce4U,
  0xbc815bae3d2dd595U, 0x3f1dcbd1be9becdaU, 0x3e9c9eb83ea99076U, 0x3f57a65540063bf9U,
  0x3f3d65873f47947aU, 0x3f6a40dd3fc3dfb9U, 0x3f3a60543f667121U, 0x3f388205400118e3U,
  0xbff1e296bfea51d0U, 0x3f053097bf7a17d5U, 0x3e6fc8233dcc67edU, 0x3f23404f3f0c94a8U,
  0xbfebd033bfcfd67bU, 0x3e3617b73fa9e846U, 0xbf0e6c0dbf059023U, 0x3ee00e6ac072ea0bU,
  0xbfb14745bfb365cdU, 0x3e2a8b873e576f14U, 0x3f2475b63f257821U, 0x3ee43cc04001ba7bU,
  0x3f0965c43f1ae500U, 0x3f1861eb3da12d8dU, 0x3efeaba43e9d08b7U, 0x3f1ba12ebfdfaea4U,
  0xbfd59f71bfeb7211U, 0x3e6ccbfb3fb541d2U, 0x3f3af5cb3f40361cU, 0x3f082dd33fbf13a4U,
  0xc020bc77c025b1a6U, 0x3e21e37bbf1cd17aU, 0x3f8541c43f9324e5U, 0x3f2b57923fd35e87U,
  0x3f827b363f5b933fU, 0x3ef519f4bd492c2cU, 0x3f0667613f24d809U, 0x3eec22dfbfec5628U,
  0x3f8ef65b3f9d3b7bU, 0x3f1c8d58bf288e8eU, 0xbf106f82bf05b0b6U, 0x3e659985c05aec69U,
  0x3fae0b9a3fba22a5U, 0x3f1ea65440689dd7U, 0xbe47ac4bbe6112a0U, 0x3ec2a05bc0019a0eU,
  0x3f027b9a3f14d29eU, 0x3ee154b1bf0bc05aU, 0x3f2314a23f28bd45U, 0x3f019ef9bec38a12U,
  0x3f0ae26b3f1a4757U, 0x3f02d330bf135607U, 0xbffb1d5fbff6151cU, 0x3cfe0fa9bfebbee6U,
  0xbda50b63bdbaba8dU, 0x3f0dabb3c0279d2bU, 0xbf87a02bbf80cd60U, 0x3e9cedb03f85449dU,
  0xbfaf9878bfac23c1U, 0x3e8cd9f5bfaba6c6U, 0xbf90f828bf88591cU, 0x3e2ca0bd3ec0767aU,
  0x3f5324883f261ef9U, 0x3ee379cf3fb0b4ecU, 0x3f6b2fd43f41b42aU, 0x3f2f57dc4038919dU,
  0x3eef03593ef3f6daU, 0x3f028fa0bfc2513aU, 0xbf872e11bf6de29dU, 0x3e9820d53e67fa7cU,
  0x3f533cce3f443878U, 0x3ee54491bfda8dfdU, 0xbffcd8b3bff8d053U, 0x3e1942193f8e7a51U,
  0x3fbe42373fc467abU, 0x3f3736a23f4c6a65U, 0x3f5424ab3f704d29U, 0x3f2894a0bf3c5373U,
  0x3f1249ea3ee11984U, 0x3f12343fc02e6b53U, 0x3f35c5383f265deeU, 0x3f035051c033bf10U,
  0xc00e8e29c006b174U, 0x3d4bc8fdc006038fU, 0x3fa6c8fd3fc825cdU, 0x3f3e40c83f15bdccU,
  0xbf12fa85bf047494U, 0x3ec9e717bf8e985bU, 0xbe3012abbe2a8430U, 0x3f0a9c653ed55494U,
  0x3f40cde73f28ae53U, 0x3f243e00bf96b992U, 0x3f2890de3f1e555aU, 0x3ecd23193fda4f96U,
  0xc00fe0f7c00e23b6U, 0xbc842e20bfa6b514U, 0xbc5572e13c1c9e6fU, 0x3eeaf171c01791efU,
  0xc01a97dec01eca65U, 0x3d1f204c3fa23adeU, 0xbf660498bf864477U, 0x3ea3aa64bf8a54d0U,
  0xbfad490ebfb8dd0bU, 0x3e9d8ad3bf55881aU, 0x3f4d60dd3f200e99U, 0x3ee1d6963f990813U,
  0x3f2864333f24c2b0U, 0x3ee2b196c04afedfU, 0xbd0adb54bd1e2c15U, 0x3f09b13bc0185468U,
  0xc019fab7c017406eU, 0xbd03f0533f895746U, 0x3f248c453f03f2e3U, 0x3ed0801fc06dc2feU,
  0xbf175250bf32727eU, 0x3e8cf1e23fc67e08U, 0x3f9145533f91035dU, 0x3f1b7ba73f799535U,
  0x3f186a183f26ee70U, 0x3f09ef7c3f6a3d86U, 0x3ee96cdd3ed160bdU, 0x3ee71a804015cb4aU,
  0x3e76660f3ec8238fU, 0x3eafdeddbf7924f7U, 0xc016929ac0186da7U, 0x3d2eb9acbf67c5f0U,
  0x3fad4c803fa66fc5U, 0x3f10320e3e9ba2a4U, 0xbe8dbe71be88c154U, 0x3ea79642be28096aU,
  0xbd5ab8773c907ee2U, 0x3edd5993400a12caU, 0x3ef7150c3ee2c67bU, 0x3ee963c13fa2df4fU,
  0x3f2524513f194b6cU, 0x3f1b7f733fec35afU, 0xc01252bdc00d3359U, 0x3d9164a4bf823241U,
  0xbd76a0dabe7c1d56U, 0x3e9e755f3f1626d9U, 0x3d5d6884be0c9e50U, 0xbd4beb82bd986f18U,
  0x3df3695a3ddff62aU, 0xbd0b6612bd9efad5U, 0x3d94b8163e02b8adU, 0x3d6d6a543c645100U,
  0xbd9f76e63ca439d0U, 0x3c7819403ce4b070U, 0xbda50d23bdec90daU, 0x3d82bf483dcf9818U,
  0xbde628ecbdb19560U, 0x3e031bd73d1aa958U, 0xbd6cd194bd8fcf93U, 0x3da73c1abd5e5552U,
  0x3c537330bcb28254U, 0x3d1d37f03e06bb55U, 0x3e00cc4bbd1ad1a6U, 0x3d47637c3d06483cU,
  0xbd5c6a38bd90fed8U, 0xbd8aca12bd66a226U, 0xbc387040bdf610f6U, 0x3e06b7fdbc828a7cU,
  0xbd849f53bd61b530U, 0x3bae3fa0be0434b0U, 0xbc461ac03e03dbc7U, 0xbdd2dfc33d666a8cU,
  0x3df3a12e3d45ca44U, 0x3dacfcc43c53f1b0U, 0x3c5c73d0bcc68638U, 0x3db89964bc25a130U,
  0xbd866622bdb9066bU, 0x3da3fb303c0c9950U, 0xbd7c55563d6c7814U, 0xbdf4d9383d3bf1e8U,
  0xbda4f4bbbe04c986U, 0x3d821270bd0d56d2U, 0x3d134aa8bdc130efU, 0xbd7614e23deb23e6U,
  0x3caecf583e0a1715U, 0x3bfd7d803db23d36U, 0x3d61ea3cbd8153adU, 0x3d240088bda81770U,
  0xbcd5aa843c80c5d8U, 0xbd2e10743c123810U, 0xbdd9286dbdb02a6cU, 0xbd6b4ff63b656ac0U,
  0xbdf95c593db7cc8eU, 0x3dc29664bde940d0U, 0x3d0408483c968268U, 0xbb96a2a0bd82c8e0U,
  0x3c50d5603d015514U, 0x3df2f15ebdd070e1U, 0x3d234ae0bdedc241U, 0x3d8d20eebd5e469cU,
  0xbe0a5636bd13a44aU, 0xbd28848e3d04f420U, 0xbde173603dd3b512U, 0x3da1995cbda54694U,
  0xbdb8e9b03decc9b6U, 0x3d3289e0be061233U, 0x3d5dddc0bc00be20U, 0x3cc1ae38bdc36c20U,
  0x3c1eccb03ca53a50U, 0xbd88b9f9bde102f4U, 0xbc1b5b40bd92a0bdU, 0x3c75ac10bde614dcU,
  0x3dd74b323dd899fcU, 0x3db3ca6a3d232854U, 0x3d34f9c43bbf99a0U, 0x3dd9c3ca3dd662a2U,
  0xbd42b9143dce656eU, 0x3de5a3483d15e2b0U, 0xbd5434563ce57a50U, 0xbd56b9763c8a1e38U,
  0x3abed300bd38b758U, 0x3d156704bda968a7U, 0x3de28dc4bd728d66U, 0x3d22f67c3bd1dc80U,
  0x3c3946f03d64d95cU, 0x3b4740c0bdb96b21U, 0x3d476a78bdc80277U, 0x3d51fd24bd4d541eU,
  0xbd3c74383d755db0U, 0x3d9815f63ccadfc0U, 0x3bf2fdc0bdc1b9b2U, 0x3db887a23ba92a20U,
  0x3d389c603d9b9492U, 0x3d098c94bd3f376aU, 0xbe0b3bdb3cc2ffd0U, 0xbcb8604c3db10cb8U,
  0x3b1410803d314468U, 0xbe020308be0c6450U, 0x3ddb017abdeaecfeU, 0x3d97f6e83dbccccaU,
  0x3cfc85b03d68d4f0U, 0xbda114d63ddbee72U, 0xbd1593ce3d1558ecU, 0xbdc7e914bd010798U,
  0xbd942706bd092ee0U, 0xbd9c4dd23dbbb7d2U, 0xbdc302ae3d5120d8U, 0xbe01e2d6be000d42U,
  0x3d4778203e09191bU, 0xbd37108ebdcd3ed4U, 0x3dc3f6c8bda80acbU, 0x3e00d7bd3dc7426aU,
  0xbdbcbd0cbddd2d90U, 0x3cb797983e02b6f7U, 0x3d2773b0bddbe1e4U, 0xbd6b09f63b238340U,
  0xbd10c09c3dc109ecU, 0x3df609c63deb07eaU, 0x3d07d6383c79e1a0U, 0x3dcc6238bc94955cU,
  0x3df57f3239988200U, 0xbd23c4b83dc077eeU, 0x3ddd2558be0115b9U, 0x3dafbe84bcc71ee4U,
  0x3de8a2f63d85c20aU, 0x3dc54b6ebd637b04U, 0xbb5cb200bd849966U, 0x3d1fe138bddce699U,
  0x3bb6db003cf26f48U, 0x39d558003da12d30U, 0x3d77ee243e07e59fU, 0x3e097fb5bd4d0b88U,
  0x3d4ffed2bd3b3bb5U, 0xbd3631f3bd9b4f66U, 0xbda136debca2e479U, 0xbdb0cbb03dcea04bU,
  0xbd9b67143de9a0b9U, 0xbdf24852bc8c1797U, 0x3d442abb3ddc760eU, 0xbdeb4f7b3abb16f0U,
  0xbd271af2bdbe0325U, 0xbdf123433c9b2e2dU, 0x3d89613abdab9b32U, 0x3c0c0e863cd250adU,
  0x3cce16363b0a0deaU, 0xbd9e20d5bd1a406fU, 0xbe11722bbd9a00dcU, 0xbdafd2033dfd2789U,
  0x3db93a10bdf6b586U, 0xbdc906873dde6e18U, 0xbcbf7428be01863fU, 0x3da646583db5af19U,
  0xbd97bbf03d9c365dU, 0x3dac46873c40c446U, 0xbc7e14273c2804cfU, 0xbd2288a53c8eaa6aU,
  0xbe0934613c6421aeU, 0xbdcf8c543c6c801fU, 0x3e011fa8bd8bb5d3U, 0x3d924ce43c3a6a80U,
  0xbd822b37bc8f1d12U, 0xbdd4c322bd0b1ad0U, 0xbc9157423dc34b7cU, 0x3ce8f046bd6b5259U,
  0x3da779a7bdfa53b2U, 0x3df03865bdfedcd2U, 0xbdf6557b3d41c403U, 0x3dcd702d3e10937bU,
  0x3c92678f3d8d9135U, 0x3dcbc10fbdf068dfU, 0xbdeaa4123aabe7ceU, 0xbd165cbfbd57c4e6U,
  0xbd9f96473dcc5b8cU, 0xbd044e783d89665fU, 0xbd9f8067bd1dc6b5U, 0xbd8852aebde42d10U,
  0xbe0d76a93dff84d8U, 0x3ca03f4abc15fd4eU, 0xbe0efe6ebdda35efU, 0xbd25353a3be68472U,
  0x3e03973fbd7fa841U, 0xbdee11fe3db5e2fbU, 0x3d7cb1473dbc93a6U, 0x3dcc06e9be0e6efaU,
  0x3df7b883bd30b22cU, 0x3d7026be3def3956U, 0xbc76cf93bdc43a5fU, 0x3b9a2935bde2403aU,
  0x3dadb1fd3c7412c7U, 0xbd95298cbcdf4c4eU, 0x3db2d2c7bcba6375U, 0x3d8caa093ab6f9a7U,
  0xbdfab9c3bdd55945U, 0x3d2bf9f5bdf5971eU, 0x3dbfa622bdeee871U, 0xbdaceeaebd45edc3U,
  0x3d8d6b05bdfdf232U, 0x3dc32f4f3d320eddU, 0xbdba536e3df1012eU, 0x3defe9a2bc9001cdU,
  0xbcc45353bd0fbb2aU, 0x3c8a077c3cb62f3bU, 0x3e0064e63b92c7d0U, 0xbe10cea73e04c1c2U,
  0xbc9d2e13bd71c7abU, 0xbde77cdc3dd0185aU, 0x3c4e83a23c8c4765U, 0x3cd025b9be01e5c0U,
  0xbcd88163be06a09eU, 0xbd5770753e1056b4U, 0xbd9648aabdb76840U, 0xbd7fe81e3dd219b9U,
  0xbd68255a3d1f776fU, 0xbde54f133d82d271U, 0x3d82318f3da5e011U, 0xbd678de0ba3eae54U,
  0xbd994bebbdadd012U, 0x3df2c412bdf09d60U, 0x3dd29dc83d155ef3U, 0xbd128fe63d7e93f8U,
  0x3d38c55ebd94c7ddU, 0xbd147a353cc22febU, 0x3a895fec3cfaf6d5U, 0x3d627e383c364216U,
  0xbdff19063dd66ff5U, 0xbd9d71a13db585a1U, 0x3d999b27bcabee25U, 0x3c882bf6bd46ce71U,
  0x3d79ca3dbd0d3507U, 0xbcdf379d3de245feU, 0xbe04237d3dc2ffa3U, 0xbdc922bbbc2e5c19U,
  0x3e00c78a3e04b5b8U, 0xbdf907e0bd3d5a71U, 0x3dd412ee3d49c056U, 0xbd11554abd254a98U,
  0x3d3c0bc0bdfd492aU, 0x3db9d179bceb2f39U, 0xbdddc43dbd38f7a8U, 0x3d1363b73d842073U,
  0x3d821a783d374563U, 0xbcdcc71dbdae71b6U, 0xbe150459bd8901c5U, 0x3dfa7c7e3d836b69U,
  0x3de6d3c63d1bf323U, 0xbd8a27fdbd064b8aU, 0xbc968e2abd5434cdU, 0x3debe7d43d8ed0feU,
  0xbda0559bbdd3cf44U, 0x3d345e9d3d21fff6U, 0xbe04acb73dc89ef9U, 0xbe0f72e53d162499U,
  0xbdfb04653d018f91U, 0x3dd1a1973d7c7d7cU, 0x3df0019d3b513cfbU, 0x3d63db873dae8071U,
  0x3c313f7a3d19f063U, 0x3d54a21b3da52d6eU, 0x4003f4a24011c135U, 0x3e5ed3d9bfaa11dfU,
  0x3f9623e63f6ef23eU, 0x3de2eab1407a6074U, 0x3ff19c3f3ff6fb65U, 0x3df512613d2b7e7dU,
  0xbe6c0cebbe9219faU, 0xbe0a195ec00189e7U, 0xbe81ee79bd6af367U, 0xbe5e3e3abe271a66U,
  0x3d2c7bc1bd2e7709U, 0xbce1e7b73fd494fcU, 0x400d3af2400f5abdU, 0x3ebb01afbfb64df4U,
  0xbf02524cbede52b1U, 0xbda78de1bfc44eb1U, 0x4045c87c403a9c9fU, 0x3f08c0983f3b24e7U,
  0xbf43077dbf1b6554U, 0xbde14d0dbfbd7f71U, 0xbf3199dcbeec2c64U, 0xbd4f40303e909709U,
  0x3ba149593ca23df4U, 0xbe24fcca3ff2e0c1U, 0xbf717135bf641d67U, 0xbe614cfb3ef0eebfU,
  0x3f9ad5523f802dc0U, 0xbcd2c54c4050de89U, 0xbf8877e8bf857004U, 0xbeb3faa5c06a0724U,
  0x3f17944a3f250a35U, 0x3d8d84593ff50703U, 0x3cbff0a2bdcbb34dU, 0xbdf903f33ebf12d6U,
  0xbeb4b3bcbe5410e9U, 0xbcc904f93eb8dc17U, 0xbc75ea00bdfb53feU, 0xbd1cdeb53f19ac9fU,
  0x401a06c2401a2e63U, 0x3e98e2383ff5a1b1U, 0x3eae14213ee3a919U, 0xbd60ff23402cff4fU,
  0x3fc0ba793fb7a114U, 0x3e6f8c95bfa75773U, 0x3fcc4cda3fec9f74U, 0x3e3511173fa715d7U,
  0x3fde56723fc79a64U, 0x3e119b9abf05f9a1U, 0xbe561f1fbeaaa4faU, 0xbdb9339cbf977bd6U,
  0xbeecb0c3bef06547U, 0xbe5f51a0c03968c0U, 0x3d4d49903e13f510U, 0xbe12fe6d3fd3192bU,
  0x3fcfbb5b3fb7be80U, 0x3d9f0d36beb2aee3U, 0xbecb4e68beb64c62U, 0xbe0aad4e3fdb2ef0U,
  0x4016427940176ce5U, 0x3ea4ed76bf81fd33U, 0xbf9ccdc9bf9a7698U, 0xbe8114bcbf7341feU,
  0xbefad43abf055537U, 0xbe6aa0123f0b40b5U, 0xbc0a8bf9bda8b0bdU, 0xbe44a7be4029de33U,
  0xbee05f97be84a2a0U, 0xbd0d5d3c403dbdaeU, 0x401f6332402c7851U, 0x3e86708e400a1933U,
  0xbf8e7449bf9c2e1dU, 0xbea0bd6cbf23e69fU, 0x3f8b501f3f93a496U, 0x3dab36833f803edbU,
  0x3f0d87f83f1bbc77U, 0xbd983c54bf0456f7U, 0xbe3b113abe4e537dU, 0x3cb3a1913f881c47U,
  0xbe90046dbca4df8fU, 0xbe3f7b65bfdebac9U, 0x402226914024b835U, 0x3ec5b5ba3fb3efdcU,
  0x3f0000173f08d8c5U, 0x3dcd5183401dee49U, 0x40305387403b56c5U, 0x3ec79527bfb4eef3U,
  0x3fc90bba3fcac6bfU, 0x3e7cc8c23f885562U, 0x3ff3cf883ff1b711U, 0x3deffd873f5e1ed8U,
  0xbebb3174beb5704aU, 0xbda76160bf98b17eU, 0xbeac1f56beee16e8U, 0xbe86bbfa4055905aU,
  0x3efc68223f0aae8bU, 0xbdbeb991401e0fb2U, 0x40378a83402b8d17U, 0x3efda6e3bf799cbfU,
  0xbddbc419be24c96bU, 0xbde88a314066eb5aU, 0x3f9e07e23f891318U, 0x3c804ebcbfabf90bU,
  0xbf5cdfcebf468cb1U, 0xbe9fea28bf5683c7U, 0xbe5ee1a4bee3e670U, 0xbe7206c5bf6e30b1U,
  0x3d3b816abd0d7e6cU, 0xbc5fdbc4c0052e0cU, 0x3e328d703e8b1f43U, 0xbe24c5b63f7dca9cU,
  0x40365a00402d734cU, 0x3e681e313f6d4686U, 0xbf52ee9cbf857dc2U, 0xbe7fda14bf2180beU,
  0x3f5f5f0f3f5d4414U, 0x3e17458b3ce8a000U, 0x3ef6aa973f065698U, 0x3dae4807c001a181U,
  0xbe21ad00bd986b85U, 0x3c08dd73bf8c00cbU, 0xbd1dd9aebcd7c25dU, 0xbe20bd65bffdb920U,
  0x4020a19d4026bf14U, 0x3ef170a33f90917cU, 0x3f3cdf5e3f221308U, 0x3d140d3fbe3fb945U,
  0xbbfadb20bd6c185aU, 0x3d6db630bc50cd70U, 0x3c0a3250bd90436dU, 0x3ddf41e23de9e97eU,
  0x3dadc7343d83caa8U, 0x3e03d667bda95066U, 0x3e01f98d3da3cfeaU, 0x3d3075ac3c570020U,
  0xbda2c7793dfc1996U, 0x3dd97816bb010dc0U, 0xbde6024e3d39e750U, 0xbd61393e3dc692d4U,
  0x3c1a0b703daeabdeU, 0x3c76a6b03dc846c2U, 0x3de0de3abd81fbf1U, 0x3d6b6b58bde9bb42U,
  0xbcdde3c0bd1c0f3aU, 0x3cdbb310bd172678U, 0x3e0444273e0754e9U, 0x3cf53500bd408ce8U,
  0x3cc481283d7fff94U, 0xbd91b8c33d92508aU, 0x3d082f703d20fd14U, 0xbd992d5f3d5aef98U,
  0x3d9c56743dc2b4eeU, 0x3d8217d83dd060b4U, 0x3d5dfddcbd19c23aU, 0xbdb60de13dfa14f6U,
  0xbd7a2e8a3d055a44U, 0xbdaf4868bdaacd14U, 0xbca2a130bdb73a19U, 0xbd7b016ebdf3cb8eU,
  0xbe029cf0bd055210U, 0xbc9c5d643b75de40U, 0xbd1408a4bdbb29eeU, 0xbb701d00bdaa9172U,
  0xbbe6ed80bde925ecU, 0x3d63df5c3dea6f52U, 0xbde18e13bcdd3de8U, 0x3d1ba320be045c8aU,
  0x3bcc30203ddab054U, 0xbdd15722bcb97838U, 0xbdfdf246bdde6debU, 0xbd6c9704bdb708f0U,
  0x3cd647c0bd19c8faU, 0x3dc42e0e3d34a834U, 0xbe04fa143becf9c0U, 0x3d594bb43d95067eU,
  0x3bfc0d203d06bad8U, 0x3cb683f03de10348U, 0x3ddf4dbc3ce44b48U, 0xbdb35841bdf9c179U,
  0x3dd2d2083dfdb9d2U, 0xbdccf9b03d257fd4U, 0xbd9ab60e3daa44d4U, 0xbe000db9bd21d574U,
  0xbdd9b5febd9e3138U, 0xbda1385a3dda4f9aU, 0x3b01e4803da8f0b8U, 0x3d185e543d9b2874U,
  0x3c5c44e0bda6d2beU, 0x3df9e6ae3d80aba8U, 0xbd9f89ea3c31c2b0U, 0xbc2d8280bdb6656aU,
  0x3d00d9d83d996164U, 0x3dcd3ffabda3632eU, 0x3dfb3162bd0e8b3eU, 0xbc786d70bdcaab9eU,
  0xbdb0499e3ddc1576U, 0xbb8fb1e0bc704970U, 0xbce598f83ca26438U, 0xbd785d463c17c770U,
  0xbe02b579bde80386U, 0xbdf9d7d43d383a44U, 0xbdc636703dd0a7f6U, 0xbd91fa493d78d728U,
  0x3dce7c94bd46639aU, 0x3ceae4303d248690U, 0xbdd0de83bbe28c20U, 0xbdaba561bdf3626aU,
  0xbd4e0b7c3ddf075eU, 0xbdb2206dbdc81e29U, 0xbd6497ce3dbcd954U, 0x3dd9bf78be037266U,
  0x3ddd32363d1d46fcU, 0xbd6e9d283d1f5528U, 0x3db9bc30bce4cbdcU, 0xbcbaa318bdd186a3U,
  0xbe04aa60bda6c92eU, 0x3e0bb8ebbe056143U, 0xbc035510bd8587c9U, 0xbd9793d4bb005340U,
  0xbd12378c3debd916U, 0x3d10a2acbcf0dbd4U, 0xbdcd2e9a3d1bec18U, 0xbe0bf6bfbe0adc2dU,
  0xbd05b31a3d6330a4U, 0xbdd46588bd09c336U, 0x3d3c6584bdadcb70U, 0xbdd43f423dc44710U,
  0xbe0b57e83d986f70U, 0xbdd18124bd3f4af4U, 0x3d62f1d0bdb3f9cdU, 0x3cc6b578bdd9bfd8U,
  0x3e08a2033ddf7746U, 0x3d92c5f23d1e97ecU, 0x3cd356c03d154178U, 0xbd9cef0e3d132c68U,
  0x3ca09f78bdaeccd6U, 0x3de35d7e3db80838U, 0xbe0668613af6f880U, 0xbd8dbe2bbd1d3712U,
  0xbd21a728bda52d0eU, 0x3cb65918bdfec464U, 0xbe0cce0bbd9fbee1U, 0xbdb4aa6739bade00U,
  0xbd847413be051777U, 0x3de3ef20bc290b60U, 0xbe0aaad63cf393e8U, 0xbe0b3a3cbd4ff57cU,
  0x3ddef5bc3d8b050cU, 0x3e015e5f3d8463eaU, 0xbd283ff63d631d90U, 0x3dba3408bd896de2U,
  0x3bbb4b80be0c7317U, 0xbddb4fa43df6145eU, 0xbddb0287bd47fb32U, 0x3dc8b4bcbd9ecb1fU,
  0x3de2f91cbca36b54U, 0x3dd080a8bd619730U, 0xbd2e94643d0762f4U, 0x3de4cbbcbde6d986U,
  0x3db7ddf0bde0493eU, 0x3d926002bd78fdb4U, 0xbdf2841a3dfb671aU, 0x3df7f71abe0be715U,
  0x3d4d0704bde91e42U, 0x3dd907ae3d7671f8U, 0xbde812aabd52287aU, 0xbd5678483d95b986U,
  0x3d9f1fa8bb21c200U, 0xbd64f7fcbcc57cf8U, 0x3d071b9c3dcb9fdcU, 0xbdd02578bd0d2e1aU,
  0xbd0df204bb0c76c0U, 0xbd025cc63c2e7c10U, 0xbdc000223de62d66U, 0x3df23dc6bc8756dcU,
  0xbe01c529be0ca907U, 0xbdb66604bdb66bc9U, 0x3c3c2f703a2a8500U, 0x3cc23f603e095531U,
  0xbdc66338bd3b3b4aU, 0xbd74e2e23d78c4a8U, 0xbd848ec1bdd22ae4U, 0xbc5ee6403d0b3318U,
  0xbd8616bbbdd9aa55U, 0xbb4a78403da67670U, 0x3e00e5f9bd3a0598U, 0x3dde35103cca0a90U,
  0x3e051439bd9c96f9U, 0x3d19dd3c3d3541e0U, 0xbc338da03d7467d4U, 0xbd7da052bcaf0f10U,
  0x3dfdcdb63da7d4f8U, 0x3d8180903daf0e46U, 0xbcf2bcbc3d64fc90U, 0x3c6f0fd03d00a3d4U,
  0xbca634243cf4deb0U, 0xbd11e066bdb14b58U, 0xbd883b57be061b49U, 0x3db3daa83d85dfccU,
  0x3c91f4703df00a92U, 0x3bf8a980bdaf80aeU, 0x3e00ae7dbe083fe8U, 0xbb6dfac03d967c54U,
  0xbdd21e2ebc8c653cU, 0x3dc1e4843d1ac750U, 0x3da8cbd4bdda402fU, 0x3d6fa5c4bcd80610U,
  0xbe08c5da3d81c216U, 0x3c1728503e0993afU, 0x3b9961203daa148eU, 0x3c831740bdee7802U,
  0x3dbd0abe3df8b31eU, 0xbdb0c1c23c4864a0U, 0x3db4d116bd99f3adU, 0x3db54240bdb58b2eU,
  0xbe04f58f3d1f31e0U, 0x3dbc62f23df8fb8eU, 0xbdaa0358bded7543U, 0x3dcd6b74bcacdf58U,
  0x3d411ca8bc469470U, 0xbc889a20bdfe1e7dU, 0xbdfa73dd3d5b0fd0U, 0x3c1448c03d15f430U,
  0x3d561cdcbdba2df0U, 0x3d6fb034be0b5080U, 0xbd091bee3d65a0c0U, 0xbb287800bd4329a0U,
  0x3d2893443d590240U, 0xbd9cedfeb90a1000U, 0xbca8dd983d065204U, 0xbdd5ae763e099cfdU,
  0x3d825f383d88a8f0U, 0x3dc5bcda3dae0b1eU, 0xbd8739cd3db3d384U, 0x3d33aa10bdaa608cU,
  0x3b191f403d598c44U, 0x3d8a85d0bdfc3398U, 0xbdef9f0bbdba5f56U, 0xbd65e0f63a47bc00U,
  0x3cfbc880bd5d0708U, 0x3cc5c1703e021ef7U, 0x3dcfbae23b887560U, 0x3d0c3860bd800644U,
  0x3b3796803d4fb1c0U, 0x3df34d463cb0f520U, 0xbe022824bd0a3c66U, 0xbd8d99b8bd9872a5U,
  0x3d534044be04c1d8U, 0xbdad91043dcf593aU, 0x3d0f4ee83d571bf4U, 0xbe01c712bdb3ae91U,
  0x3d9eb670bdefb317U, 0xbdd6d4463ddffcd0U, 0xbdd5528a3d6d6fd8U, 0xbdd76f92bdd88e2fU,
  0xbddb9f2a3dbce356U, 0xbdd9ac43bdb61adeU, 0x3cb437683dc3c0b2U, 0x3e0c5e333dc014a2U,
  0x3d42e3143c86e4f8U, 0xbdc9566cbe0aa061U, 0x3d928f6e3dad23eaU, 0xbcfc7ef4bd14577eU,
  0x3d3d4f14bc87a954U, 0x3d0ec5acbc1e8440U, 0xbe08ea15bdaec036U, 0xbd88b9103d6389e4U,
  0x3d561dd03df020caU, 0xbcc72a8cbdc5f24cU, 0x3dcaa7843df0754aU, 0x3db19426bd926e46U,
  0xbd950cd5bd6a4492U, 0x3d62d8dcbd8fa304U, 0x3d8905f83dccbe3aU, 0x3d164558bdbeacc8U,
  0xbd511de2bdd7713eU, 0xbd892bf2bd350d2aU, 0x3d8f5ed2bde484f6U, 0x3ddc81aabdb5ee10U,
  0xbdfcf85dbd4a88dcU, 0x3e05ab6bbcdddf20U, 0xbdc12fccbd534fa2U, 0xbc7161d8bd0b2c68U,
  0xbcbca900bd2adfecU, 0x3b3b86803daa96b8U, 0xbd04d3b43c077770U, 0xbb986be03dff0882U,
  0xbde88230bd4cb0c2U, 0x3df820063de33442U, 0x3d2e28ecbcbd57ecU, 0x3dd13726bdec5998U,
  0xbdf4bf543d6983b0U, 0x3dc3a7343d947f8aU, 0xbdfa741b3d7dd6f4U, 0x3d52d21cbcebfb24U,
  0x3d4148a03d9f5fb2U, 0xbcc11c583dbc05d0U, 0x3de6e3e63df4e30aU, 0x3c0b03203dd40d72U,
  0xbd6e8f1a3c958ec8U, 0xbdcb4f4cbd7eb35cU, 0xbd8379383d32b138U, 0xbdc2ea69bdc18920U,
  0xbd7c3594bd5d222eU, 0xbdde3ed8bd91e0a3U, 0xbd265d9ebd3f5e96U, 0x3dcb7b043deb29faU,
  0xbda8424abc95382cU, 0x3df64402bd1c12eaU, 0xbe0c695c3c80a0a0U, 0x3d8cbe14bd59188cU,
  0x3d9d9d0e3d3431f0U, 0x3ccbe2c83e0a5c4fU, 0xbe0bcc223d43e518U, 0x3de55b24bd86e076U,
  0xbcd6babcbdc925baU, 0x3d16af08bde54cd0U, 0xbd9237d3bcd3eab0U, 0xbd3ded923dcc9b66U,
  0x3decf52ebd809ad3U, 0x3d204ac8bbbb89e0U, 0xbda3ff563d8880acU, 0xbd6d05a23de4127cU,
  0xbe05da7a3dc9ede4U, 0xbdadf2123d16c0a4U, 0xbd91947dbd78081eU, 0xbdc09a3dbc05d4b0U,
  0x3cef5638bd8a2e16U, 0x3d05e4fcbb9e2880U, 0xbdc7c8de3d552350U, 0xbd967bb63d925324U,
  0xbdc136d8bdf39babU, 0xbdebe19cbe006684U, 0x3c4176b03dccc48cU, 0xbc42be103de6dc9aU,
  0xbe0cbed1bd8eda98U, 0x3cc8e8a83de36c04U, 0x3dcc7e283d829ce2U, 0xbdbe7019bdd60822U,
  0xbdebac0b3c624d80U, 0xbdd32a8cbc870180U, 0xbd4ba3c0bdc71aa8U, 0xbdd50b013de831a2U,
  0x3d76f440be0a5d65U, 0x3de579943dc4af4aU, 0x3de3e042bd1a7b5aU, 0x3e06e7e73e0254efU,
  0xbd4180e8bd9c6398U, 0xbde03f103e0ac2cfU, 0xbdee252d3caf3a30U, 0xbde810ecbdd0063eU,
  0xbdf2ef193e018721U, 0x3c66f9303e059759U, 0x3d934c30bd04c03eU, 0xbd7b56babd2b6fa4U,
  0x3df8ed62bd635aeaU, 0xbdc82147bdd4146cU, 0xbdcb8ba3bd8bc357U, 0xbcc4d62c3d48c300U,
  0xbe07bfe73e0c3f31U, 0xbe03bffabded2938U, 0x3c12b360bbd28ce0U, 0xbc894efcbddd6706U,
  0x3c5b83603db0337cU, 0x3df4d4a6bd9a3b47U, 0xbdaf99d33c8eac40U, 0x3dfeab6a3e030ce7U,
  0x3e01adb13d884a46U, 0xbcf21374bde35930U, 0x3cd84ba83c2254f0U, 0x3e016a03bd5124bcU,
  0x3d2df3743deb72beU, 0xbde194613dbf61c6U, 0x3cca31b8bcae801cU, 0x3e087b1fbbf8f060U,
  0xbb14ea403db35558U, 0xbd91d8823da353a4U, 0x3d7658ec3d838d94U, 0xbdadd7cebd603de0U,
  0x3d2c0ab03cb29040U, 0xbd3d8816bd5f9fa6U, 0x3d73ce0cbd92e11bU, 0xbbe51a60bd61b5fcU,
  0xbdeda5e33d17fac0U, 0x3d50ddfc3d89c6baU, 0xbdbcefd73dccbf5aU, 0x3db2ea24bdd89996U,
  0x3d12751c3de56a40U, 0x3dbead4c3d1882d0U, 0xbd0737f63d77ea04U, 0xbdd69eac3c624960U,
  0x3c4bbef0be066e8eU, 0x3da9348cbbb98400U, 0x3db470883e00e203U, 0x3db1089e3de715ceU,
  0x3d85885e3d36f47cU, 0xbb207cc0bdee566bU, 0xbc04cb00bda83a70U, 0x3e0d080d3d0363b8U,
  0xbe0724433db45ce0U, 0xbd2ec834bcf67174U, 0x3dba60febdab3e28U, 0xbe033664bd67f08aU,
  0xbda9cce63e0045b7U, 0xbd53cc56bcc575f0U, 0x401b02e740226e2aU, 0x3f36c055bfb2e8d2U,
  0x3fbc70053fb6063aU, 0x3f120d7540706ddfU, 0x4011493240166147U, 0x3f3400b13dcbcf8eU,
  0x3e0bfcdd3e85c8d3U, 0x3ee6ea9cc00d370fU, 0x3e7b65433e927669U, 0x3ecc287cbe67d9c4U,
  0x3ef8b8253f0f6a4bU, 0x3e960caa3fcff209U, 0x4023ccf54020d9beU, 0x3f59387dbf9bbff0U,
  0x3dcdb0eb3dd89c06U, 0x3ed653c1bfd49c07U, 0x4054078f404d5237U, 0x3f7d6aa23f7ae04eU,
  0xbe86b438be8b8edeU, 0x3ecff06fbfa5bcd4U, 0xbdc47474be0b9c30U, 0x3e987fa13e141f94U,
  0x3eae23ef3ee644b4U, 0x3f0055703ff59b88U, 0xbed3c782bed45e79U, 0x3e98748e3efbda2aU,
  0x3fc154a03fbfff06U, 0x3f2a22be404c3473U, 0xbee8f832bf2986ecU, 0x3e6d2afbc0631c9aU,
  0x3f86d7e33f942c85U, 0x3f02c2ac3fec649cU, 0x3efc72653e91fd63U, 0x3ee442803e4ffe9bU,
  0x3e3acd983d98e4aaU, 0x3ef35a9a3d408febU, 0x3e659abd3e99bcf8U, 0x3ef0d3b13f0406c3U,
  0x4030bbf8402ce066U, 0x3f4a50a23fdcb423U, 0x3f6280163f56550cU, 0x3ebac77b401b39eeU,
  0x3ff088313fe95082U, 0x3f0515aebf8a3182U, 0x40034bb5400f7eb0U, 0x3f2a02e53f8fb047U,
  0x400c3783400dada0U, 0x3f031fc9beff3adaU, 0x3e71ccf03e719307U, 0x3ed2d7b8bfab86a5U,
  0xbd15aa4a3d0cb2dbU, 0x3e53803dc03ad8beU, 0x3f267c343f1100ceU, 0x3e8625e23fc0e5dbU,
  0x3ffdae973ff083daU, 0x3f1777eabe200e31U, 0x3e678fbf3dcfc6f0U, 0x3eaa6c4c3fbd9977U,
  0x4031194c402a427cU, 0x3f24ce96bf2096e7U, 0xbf51faeabf383a8dU, 0x3e6c3f08bf81c028U,
  0x3cba15f4be01ca4cU, 0x3eb53c293ea2df5fU, 0x3ebdcfd53ee92354U, 0x3f0108664019c06bU,
  0x3e2c89d13d64f3deU, 0x3e65cc7c4034a65cU, 0x403a4dba40347b42U, 0x3f63083c400a6c0eU,
  0xbf107fbdbf211a8aU, 0x3e16131abf259393U, 0x3fc928f13fb8c95eU, 0x3f0e54d63f812ab5U,
  0x3f947a3a3f972d5cU, 0x3f157f9ebf30662eU, 0x3e53b67a3eac2af8U, 0x3e84f2213f6eb19aU,
  0x3ee7eb5b3ed9e1b3U, 0x3e8b781dbfc09666U, 0x40370534403e245cU, 0x3f50f9233f966ce6U,
  0x3f630a793f6d8a69U, 0x3f04d4c04019735aU, 0x403bbfdc4048e053U, 0x3f59f695bf9a3e5fU,
  0x3fe3eb2b3fe396faU, 0x3f0293fc3f958bdaU, 0x4004aab04006d91cU, 0x3f28fce43f6ede05U,
  0x3db366213e7ae8acU, 0x3e9f339cbf8b8e56U, 0x3dd00bce3db1200fU, 0x3e75309640554e0fU,
  0x3f7dab1e3f5e820eU, 0x3ea93ffc40187a6aU, 0x404351564045831aU, 0x3f4cf4d1bf3e2dc4U,
  0x3e11ee1a3e1cb5cfU, 0x3e9a1162406f7aeeU, 0x3fd951403fdaba36U, 0x3f0dd85cbf9085b0U,
  0xbe91a6d2bea80a21U, 0x3e4701a2bf84e065U, 0x3d6ae4dd3e5c41e6U, 0x3eeea8a2bf6f5843U,
  0x3ef207453ef95df6U, 0x3eb073cdc0018fc3U, 0x3f20149d3f37d25cU, 0x3e94344e3f782ef0U,
  0x403e4a0f4047d503U, 0x3f4c490a3f83ca59U, 0xbf0b2e07bec8caf8U, 0x3e292a72bf0822ffU,
  0x3f8d15a33f99d388U, 0x3ed94d873b7f1e74U, 0x3f4bee193f70436fU, 0x3ec8528bbfff6580U,
  0x3eb5fc563e8e125fU, 0x3ee3d12fbf682c0eU, 0x3ee0197f3eacc729U, 0x3e72103ebfe904e6U,
  0x4040e8cf40431e3eU, 0x3f62230f3f9a8de0U, 0x3f86e8fc3f88b490U, 0x3f12e206bcf8f4ebU,
  0x3d51b2243c7b95c0U, 0x3e01dbbbbd3ee61eU, 0xbd008202b99d1600U, 0xbdffeb6d3dfb12faU,
  0x3e00a7193d492cccU, 0x3d7d68c0bded294eU, 0x3dc84cc6bd0aa84cU, 0x3d04e3a03cf23840U,
  0xbd31c734bc1f7300U, 0xbd1276f83d1903f8U, 0x3d7a1ca8be03caa8U, 0xbd8280d4bd65257eU,
  0x3e0ab147bddb714cU, 0x3de93da6bdddd0ccU, 0x3dfe56c6bdcdee46U, 0xbe07cf183e061817U,
  0x3d8c7806bdafdb7cU, 0xbd9236773d9bec20U, 0x3dad5d88bdddb6edU, 0x3c2a1430bcaae75cU,
  0x3dab8080bd7a54b4U, 0x3d9af792bdf401b5U, 0xbaed2f003dd4f7f0U, 0x3dcc6d80bda5e4f5U,
  0x3e054b59bddaeb08U, 0x3dbbc2dc3b9c8e20U, 0xbe00d46f3beb87e0U, 0x3d2e5990bd8b4d90U,
  0x3dbf0236bded05faU, 0xb970b0003db9af60U, 0xbd352ed2bdf29630U, 0x3d8fac0ebd9003d1U,
  0xbe08f3073bd62ba0U, 0xbdce610abd1d2854U, 0xbcdf62543db985caU, 0x3d6243983d6f62a0U,
  0x3de03f523dfe062aU, 0x3c7f4960bd98f522U, 0xbd73937c3df74d12U, 0x3e013cadbd81a4feU,
  0xbdaf904cbdc9c94aU, 0x3de3b614bc514620U, 0xbd85e858bccb3d18U, 0x3d642d98bd57fdb0U,
  0xbdfc53b33de7806eU, 0x3c4556f03e034753U, 0xbd1431bebd7ac448U, 0x3d1e8e883e07e3cfU,
  0x3da0fe523db732d8U, 0x3df8bb46bcc7dc70U, 0xbdb581843de91dbaU, 0x3cef56283ba58f20U,
  0x3c4b7e103e0951b9U, 0x3dc8b35cbced8de8U, 0xbe027a16bca63b4cU, 0xbd4edc363d75b614U,
  0xbd1e364ebd923db3U, 0xbdadc9ae3e009cd7U, 0x3bfab4a03df5cddeU, 0xbdaf27f93d8723ceU,
  0xbd7fcb263b0b7440U, 0x3df1a71a3c5d4f10U, 0xbd38f0e83c6619d0U, 0x3d1d2f6cbcb31650U,
  0xbc94d32c3d1bb808U, 0x3dc323103da71b58U, 0xbd5eef22bd3be170U, 0xbd9b3864bd906012U,
  0xb9ff9c00bd94c199U, 0x3d851094bd3aa23cU, 0xbdcbf2283d2f9dd4U, 0xbd05de9c3d8d5f80U,
  0x3d162e083d77a430U, 0x3bfe02603d839eb4U, 0xbcb85c703dae2d30U, 0xbd7b0ce8bd8c84faU,
  0xbd69fd543cc02e40U, 0x3d31ddf83d89ecb4U, 0x3d248d6cbd9067a1U, 0xbd77b2223da88c22U,
  0xbd8caf13bc42aad0U, 0x3cc492b8bd103656U, 0x3dcc9f04bdd5e66dU, 0xbdb0a1603c23d910U,
  0xbdd9006abc571e28U, 0xbdb941843d40b56cU, 0xbe0022a93dd1c06cU, 0x3db7aed4bdd82ffcU,
  0x3c7a41803e024f0bU, 0xbd943d5d3d9bd88eU, 0xbd7ff1983dc72eeaU, 0xbd41e9643d26194cU,
  0xbdbfc3a4bdf64230U, 0x3dce477ebdfadfcfU, 0xbd9aef30bc19a7f0U, 0x3db970a0bdd373bcU,
  0xbb9e52a0bdbecb79U, 0xbdb84693bd304274U, 0xbdc7f8443da9354eU, 0x3dda67563deffaf2U,
  0xbd8f6ce53da3af6eU, 0x3e0be81bbde0246eU, 0x3ce3e628be06862eU, 0xbd85c5bd3dc7dc54U,
  0xbd31402a3ccd14d8U, 0xbc41e300bdce36b8U, 0xbdc006703c5633c0U, 0x3e03b527bdda2c3dU,
  0x3d99263abc028050U, 0x3defaa863dd3e094U, 0x3c8fb098bbd9c300U, 0x3bdaf4a0bd8d7d44U,
  0xbbcf42e03dd28e4eU, 0xbbbf75403ccf6008U, 0xbda99fe03e0b7e5bU, 0x3c6a5d40bd368de4U,
  0x3dbdd88abd92e46aU, 0x3d9c467c3dcca776U, 0xbdfd9eb33d8d7934U, 0xbd3285e03dd803feU,
  0x3a6b3c00bbe78440U, 0xbae66d80be033c81U, 0xbd536172bd5c009aU, 0x3d8d7c8a3df48faaU,
  0xbd1cdbf43d9d8dfcU, 0xbbbbff00bddd76deU, 0xbdc968513d18d348U, 0xbd82f8d9bd57ab40U,
  0xbd67107cbdd2f795U, 0x3db075ccbd8bfda5U, 0x3d97a1b6bd729c64U, 0x3e0b1ab5bdb289b4U,
  0xbd68717cbbef93c0U, 0xbd4b2d98bd457eeeU, 0xbdbb19f6bcdbb8d8U, 0xbd8653a23dc5a882U,
  0x3d5be5503bc002e0U, 0xbd9e67c13d607bb4U, 0xbcc16a58bd5ad784U, 0xbb90e5c0b9e7a200U,
  0x3c404f203b1d1680U, 0x3e0d0bb73de443bcU, 0xbd4f46dcbd464042U, 0x3d1410b43d9dd7baU,
  0x3dbd99a8bdbbf348U, 0x3e05d5cb3d9a7276U, 0xbdc320f23e012f25U, 0xbbf43140bd1ae8f8U,
  0x3bb8e160bdecd015U, 0xbc8434a0bdb1a41eU, 0x3dfeb3b2bd6eedd6U, 0xbd09d7d8bd61ea00U,
  0x3e0cab793dd79dc8U, 0xbd8baf6a3d8bf24cU, 0x3dbdbf8c3cb0db80U, 0xbd7a8c223cdea298U,
  0x3d9b38e4bdbde940U, 0xbd8236863dfca5ceU, 0xbc8e72b8be0c7069U, 0xbc97f9c0bd2e4222U,
  0xbb4b1fc03df4d8eaU, 0x3cabb4e0bb8893c0U, 0x3c83b0683d910fdcU, 0xbbacfa00bda9ac9aU,
  0x3ce333803dad0096U, 0xbdf7ed5ebde8114dU, 0x3cba11e03da90dbeU, 0xbd905f12bdbbf362U,
  0x3dd3d68e3da768f0U, 0x3daec88cbd93ecc1U, 0x3d9b0cfc3dd06b20U, 0xbd8f26c2bd62d4faU,
  0x3d1be8b83d900bb8U, 0xbc8dc5943d833280U, 0x3d32f4b43db93d12U, 0x3d758b943d0d9ae4U,
  0xbde3833c3d9410b0U, 0xbc8c3d583db4e10eU, 0x3d0a80a4bdbc3cb5U, 0x3d750c643d8bfa52U,
  0x3d242f94bdda33d1U, 0xbb181480bda20df3U, 0xbe08b46d3dba92e4U, 0xbcdd3bd83c866f48U,
  0xbb4fcf40be01e9ddU, 0xbdf917433e06b33fU, 0x3dd805e83d90d022U, 0x3d46f9a0bdfb4d4aU,
  0x3d77dfe0bdfe52e2U, 0xbd6fe1aabcccf36cU, 0xbcd614f83cc8d410U, 0xbd3d0cc23dfd78f6U,
  0x3d4f62a8be04013dU, 0x3da2d9183e053d97U, 0x3d24bea4be075a99U, 0xbbf857e0bc7a0ba0U,
  0x3df5edb6bd8cbf48U, 0x3dd979483dfb04e6U, 0xbd813fd6bddc63d0U, 0x3df1a77abd4cf51cU,
  0x3e0a61a73d4f6910U, 0x3d82427ebdc63892U, 0xbdbe0376bdbc8d86U, 0x3c36c350bde448ddU,
  0x3db6bda8bdf2b85cU, 0xbdaa67da3d988236U, 0xbe0335af3d630fc0U, 0xbcbaae40bd63a91cU,
  0x3d5c07483dcb955eU, 0xbc0b31f0bdfa2cebU, 0x3dea161abe0943cdU, 0xbd288cc8bcb07344U,
  0x3c5a1cb03c485480U, 0x3d43fecc3e076455U, 0x3d358d24bde77aa8U, 0xbd9d0f213e0ce4d1U,
  0xbdd73f163b865220U, 0xbde41f2e3dcdc9d0U, 0xbe077113bdccf8cfU, 0xbdd638583de9257aU,
  0xbda41fc03c099ec0U, 0x3d8ceb543c099070U, 0x3e087e893ddc35a2U, 0x3d97adecbd6e5aa4U,
  0x3de2f38cbd42b178U, 0x3c1367703e0adfd9U, 0xbdd6cfb6bcefeee4U, 0xbdfc23d13cad84d8U,
  0x3e0347293e0789e9U, 0x3d01c93cbc187700U, 0xbcac4488bdc9c2c3U, 0x3d335a88be075452U,
  0x3d83cf52bdbb63e3U, 0x3d5a27ccbdbeb066U, 0xbbbc53e03e0442d3U, 0xbda46bd53e04ef17U,
  0x3c1536503d37f9e8U, 0xbc4ec0b039132c00U, 0xbe03190ebdd1e5f5U, 0xbde717a7bdbcfc73U,
  0xbde4657ebd2f4eeeU, 0x3dc8927e3b90e460U, 0xbdf7e2fb3d036460U, 0xbd6e68c43e0bfd2fU,
  0xbba448e03df22aeeU, 0x3d881934bcd18d90U, 0x3d80c026bc2d3dc0U, 0x3c5b06403d2bd9acU,
  0x3dc328863c1859f0U, 0xbc87ac90bdac3576U, 0x3ca173e83d8ef99eU, 0x3dff4dda3daf7faaU,
  0x3de5aee83dc9c7faU, 0x3d4b6f6cbd6e885aU, 0xbdb9ce22bd212ef6U, 0xbd0926a43d1989ccU,
  0x3d009afcbdd3d5f7U, 0xbddc6f1dbded7724U, 0xbdc352303d03da18U, 0x3dbd02403cca0920U,
  0xbda3edc03d5d5380U, 0x3d2755183c85e698U, 0xbd0a6ab43d79384cU, 0xbd8cfaf2bd909480U,
  0x3c934170bd9f93deU, 0xbc8c1c583dea1ac6U, 0x3dd5094cbdacf4f6U, 0xbdcd8c9cbde82a89U,
  0xbdcf550a3d5c7950U, 0x3dcc84c43dfb445eU, 0xbdb9626ebdf47ebdU, 0xbe0ab8a63d660808U,
  0xbbb34f40bda080acU, 0x3df1d0363d6c7b88U, 0xbd9e4e0a3df13dcaU, 0xbe033854bde5163bU,
  0xbd315298bd0f90d8U, 0x3d0e15ac3dd8043cU, 0xbd31e6c23db55116U, 0xbdb5ad02bd64d854U,
  0xbd1505883cccd5f0U, 0xbdd637d43deebb72U, 0x3cc41550bd9a2681U, 0x3da535383d918ce0U,
  0xbdd62056be0145d6U, 0xbde80eb8bdb669feU, 0x3d527878bc858588U, 0x3da30746bdda03adU,
  0x3df97db63d589418U, 0xbda0f014bdaf7132U, 0xbcf02814bda937a6U, 0x3d57ea0cbdf14318U,
  0x3d0fb09c3dadb8d2U, 0xbdd89c383c686480U, 0x3d0055e03dfc27ceU, 0xbdb0cb70bcf76474U,
  0x3cbe19303d45c750U, 0x3da2c2febd8f339cU, 0x3d74ca14be064531U, 0x3e0899153dbc2198U,
  0xbda3f4e63e0b0fd9U, 0xbdf8ae553dd29e84U, 0x3e0c8fadbdfc0969U, 0xbdf9b0b63d971c80U,
  0xbd1ec96e3b56e5c0U, 0xb9a3e000bce5d364U, 0x3d82555a3d50642cU, 0xbdd689743db35d5aU,
  0x3cf8e8d03dd965daU, 0xbd9a6246bd219500U, 0xbdfe57ee3d5c39d4U, 0xbdf99fda3d786f0cU,
  0x3dfe6c163d97df88U, 0x3d6eb0603d419d20U, 0xbd1cb7823d6e3cb4U, 0xbddfec783d37bdb8U,
  0xbe07fd06bd53b0c8U, 0x3dbc755c3db9b3f4U, 0x3da936cebdcafaa0U, 0x3dc2d5a8bdfec72aU,
  0xbda23d3f3d2a06a0U, 0xbd4d197c3c9e3ee8U, 0xbd50a4ee3dc487c6U, 0xbde363c4bc7fc7f8U,
  0xbdff09af3d980bb6U, 0x3cbaa2d03d13c690U, 0x3dc3692abdbc1190U, 0x3dd703503d78aa10U,
  0xbdef9036bd632a70U, 0xbe05a2d63d7e00f4U, 0xbdff876cbb2bca80U, 0x3d55af2cbd63f82cU,
  0x3ca1cd68bdf46f60U, 0xbe0769f6bdd02a2cU, 0x3dd817203d576454U, 0x3d7c4de4bcddab0cU,
  0xbd8b8725bdfd0b00U, 0xbdb4cc2a3de568a2U, 0x3c3404d0bcd7916cU, 0x3c9829f83d89dd22U,
  0x3d5b86ecbd063740U, 0xbbad92e03de94706U, 0xbd49db683ca32de0U, 0xbd12cd0e3ccbc3d8U,
  0x3cd75e183bb53a00U, 0xbd1c18403d94a3f8U, 0xbd1e9114bd3c1d60U, 0x3d05b408bdab6f58U,
  0x3e0457b73d9c8d00U, 0xba62f0003cdae1c0U, 0x3d8639f83d844972U, 0x3d7d94683dd48ab8U,
  0xbd612c043dc8af3eU, 0x3cd50ec03de96006U, 0x3cea0718bd28a3e6U, 0x3deacb86bd7febd8U,
  0x3e06c525bd9e9a3dU, 0xbc236de03dd76b14U, 0xbe08cec8bcae73e8U, 0xbd37847a3cc84e30U,
  0x3e0964edbc7281b0U, 0x3c9c9fd03dc20a1eU, 0xbc906648bd1b34e4U, 0x3c4a4920bd9350b0U,
  0x3c719b90bdd5ed5eU, 0x3d9385643de41b0cU, 0x3d1387f83d2e5d60U, 0xbcac8d383e023edbU,
  0x3c9dc3883dac18c8U, 0x3db8ac86bdde9b68U, 0x3db07524bd29cc20U, 0x3dec5106bd5ef882U,
  0xbd90f1fabcd87e04U, 0x3d460540bd6bf924U, 0xbdd2b73cbdeb4e80U, 0x3d4f7aecbe055820U,
  0xbd819eb93dc210e2U, 0x3d8acc423dc0c3c0U, 0xbdfc42e4bd2f444aU, 0xbda3a408bd6b9460U,
  0x3dbaa848bcb6cba8U, 0x3dc4aaa43d00f0f8U, 0x3cb766d0bdbf3e4aU, 0x3d435f38bdcbc5dbU,
  0xbda3e8b8bd6918e8U, 0xbcb5b5743db1105eU, 0xbdfcaba63d017c00U, 0x3d8a2a703d4eab4cU,
  0xbdc72accbd5c3100U, 0xbd5adf60bdfa7055U, 0xbd17c7583d7e5dc0U, 0x3a830000bbc612c0U,
  0xbdf31030bd26cad2U, 0x3d4c77a43d8c3270U, 0x3cc1bde8bd690e5cU, 0xbd6f19843cf879a0U,
  0x3dfd7fa2bd8100eeU, 0xbde2a15a3d516e7cU, 0x3df98166bda1121cU, 0xbce52254bc35c8d0U,
  0xbd654c3e3da0e724U, 0xbc8c4fe03df9869aU, 0x3d563fb03c5e47f0U, 0x3d2167b43d58f0ccU,
  0x3c6826f03de63286U, 0xbd4abcb4bc356300U, 0xbde9f2883d31b64cU, 0x3b2553403e067189U,
  0xbc1043703d4758b4U, 0xbd12548e3dcc70e0U, 0xbc454ad03d9006e2U, 0xbdc42f05bcc515e4U,
  0xbc4d6990babefe00U, 0x3e02a8c73d3353b4U, 0xbe05327dbc87179cU, 0x3da943783dbeab32U,
  0x3c1ed3c03dfafbaaU, 0x3d0242b43df8fb4eU, 0xbdb1f30abe09af58U, 0xbd421c8cbc0acf90U,
  0xbd4213ccbe06f640U, 0xbdd8ac163db7ccf4U, 0xbda43c883e06bf4bU, 0x3c32e2803c18abf0U,
  0x3c5dbc303e01282fU, 0xbdbae952bd048556U, 0xbdbcb2553ddd5718U, 0x3a7f0600bde21241U,
  0x3dae5f9abe0d0275U, 0xbd32bb7abda06ddcU, 0xbdf4061ebd01fc98U, 0x3a8f9e00bdef8e25U,
  0x3d8f07523d9796dcU, 0x3ca84eb83c9e1bf8U, 0x3d16c1acbdedcb55U, 0xbded5f49bdf9452eU,
  0xbd21a54c3c5b43c0U, 0x3d98d00cbdb1901aU, 0x3cb20bd03d092a38U, 0xbceac6f4bda96edaU,
  0x3dd50b1c3e0797abU, 0xbd4cd5c23d87e88cU, 0xbdf237e23da225b0U, 0xbd6869023d896b8eU,
  0xbdb95982bd0455baU, 0x3dde37d6bdd8f188U, 0xbbab16e0bbddf2c0U, 0x3dbd97b03dc97adaU,
  0xbdb077123d9b0d46U, 0xbba385803d8802fcU, 0x3dbff2943de3f4b4U, 0x3d066108be036755U,
  0x3d20a3c03d92209cU, 0xbe0093023d1e2c34U, 0xbdd822953d0b8f18U, 0x3d6e1f903c97dbb8U,
  0x3d8fc6ca3cce8da0U, 0x3d09b9a43db3a338U, 0xbd736cbc3d81b41aU, 0xbde89f513db98d2eU,
  0x3da21452bd913200U, 0xbde6bd3a3cbaf1a0U, 0xbb8c8b00bde44a61U, 0x3dd9486e3db811f4U,
  0xbd650b003dce8ee0U, 0xbd7c2e7a3de58e36U, 0xbd9bb9ee3dc572b4U, 0x3d40bca0bb5bc7c0U,
  0xbcd12614bd6fef34U, 0x3e046b09bdb55770U, 0x3db458ee3cba0c90U, 0x3d8dde6ebdafe632U,
  0xbaddcc00be014927U, 0x3dff05423cbfd748U, 0xbdd9860abdc0f951U, 0xbd295d8c3d9eba3aU,
  0x3d74a6f8bc7c0298U, 0x3dd724c4bcf5c8a8U, 0x3bd978a0bded8b0dU, 0x3cd0f338bd92a14fU,
  0x3d767074bd179780U, 0x3dc562ce3dba3a18U, 0xbd547c56bd85e827U, 0xbc4f23e0bdd0334dU,
  0x3d6d081cbc526f10U, 0x3d7ef1fcbcbfe390U, 0x3d25d5ec3ddad0c8U, 0xbd68e1943dd73ad4U,
  0xbde28281be048052U, 0x3db2c052bba85ec0U, 0xbdaf60cc3c971a18U, 0x3dd80b5e3cb6f880U,
  0xbaf4f3803dfee7b6U, 0x3de55dc83dc843e6U, 0x3dedfd3ebe050115U, 0x3d0181ec3db5739aU,
  0xbd8b37583da40792U, 0xbd846db43d0940b0U, 0xbe058ee1bd542fb0U, 0x3c2e31803ccfafd0U,
  0xbd533064bdbe4b90U, 0x3d07b7743d0a3bd8U, 0xbd533674be07602bU, 0xbdc7152a3ccaba98U,
  0xbfdb64abbfeb639eU, 0x3e8561793facd826U, 0xbee8c993bee01728U, 0x3eeb5c2dc07a1e5dU,
  0xbfc52e8ebfb944edU, 0x3e9680113dea1be8U, 0x3f18a0ce3f0cc569U, 0x3ee06c8c400ae318U,
  0x3f0f38e53f3f5377U, 0x3ee929cf3dda82a9U, 0x3f0015183ecb56e8U, 0x3f095c22bfe6d6a2U,
  0xbfd16bc1bfcf8accU, 0x3e81366d3f9bb1e5U, 0x3f3ba6343f350a8bU, 0x3f11b3d03fc7813aU,
  0xc02cec22c02252c1U, 0xbda4c718bf4772c2U, 0x3f8bfdb13f7d7f36U, 0x3f25e6f63fc8d0f1U,
  0x3f674c373f63c9c7U, 0x3f2b0bffbd0994f9U, 0x3f097ea63eefd5f9U, 0x3f0bf72dbfe4a5c1U,
  0x3fa59a4f3fa2ceddU, 0x3f126027bf2560faU, 0xbf2672b5bf1e073aU, 0x3ec83350c05dafcaU,
  0x3fb0f4e63fa2693eU, 0x3f089d3240650dd1U, 0xbe3993a1bdf6bd9eU, 0x3ec2f589bfe99280U,
  0x3ee19b9a3ed5c4ceU, 0x3f068483bee6fabeU, 0x3f57d94c3f19f864U, 0x3f11cde7bea6d8faU,
  0x3f2488803eeeba12U, 0x3f13643cbf123aacU, 0xbfeae3a4bfdaeca3U, 0x3d877ab4bfe407adU,
  0xbcc5309e3db51e80U, 0x3eb86ed9c0331ef1U, 0xbf660a51bf8772baU, 0x3e9036f93f9f2a7dU,
  0xbf9ba7f3bfaf80ffU, 0x3ead7ff6bfa06e91U, 0xbfa0097ebf93cfe7U, 0x3ea622293eddc2faU,
  0x3f51bf103f459198U, 0x3f0446313f92bfb7U, 0x3f3890363f60101cU, 0x3f17b2ff40411837U,
  0x3efbbb2e3ead076aU, 0x3ee2dcc3bfb600e8U, 0xbf7ad2a4bf83e200U, 0x3e8fe7e53e58bdf0U,
  0x3f666b9a3f4c36c3U, 0x3f278fdebfe79d1aU, 0xbff0c8f9c00422bbU, 0x3e8c38ba3fa04860U,
  0x3fba35eb3fd83e92U, 0x3f4ea2ec3f868b0dU, 0x3f3d75703f546fe7U, 0x3ef9b980bf5b4741U,
  0x3f1380c13f1a0940U, 0x3efceeb3c029b5c6U, 0x3f44d3d53f5e3cecU, 0x3f24042ac03aaf6aU,
  0xc00d977ec003b7a2U, 0x3c7d2b18c0112c71U, 0x3fc6b0343fb0097fU, 0x3f4a0e603f0200e6U,
  0xbf228b66bf03a6afU, 0x3ebe6940bf83329dU, 0xbd623588be2d1540U, 0x3f14a3723ed47cd1U,
  0x3f47f38b3f03bc77U, 0x3f207aabbf7f784eU, 0x3efceafe3f274100U, 0x3f16926e3fc3b708U,
  0xc00e26a2c00b52abU, 0x3e476111bfa74066U, 0x3dc4df4e3d2f0cb1U, 0x3f116544c01aa87aU,
  0xc01d6355c01ea402U, 0x3c6811b93fa200b6U, 0xbf7ef896bf6484b8U, 0x3e726d61bf892157U,
  0xbfafd088bf9c6b70U, 0x3e2c33c6bf500e1dU, 0x3f1e16e03f1fd7ebU, 0x3ef3e7773f7cfd20U,
  0x3f545fed3f3d2a06U, 0x3f1b4d6cc03ef07fU, 0x3e1448ad3e2449abU, 0x3f15dd24c029062eU,
  0xc01cc3dcc015d3e8U, 0x3d0a3d153f9cba62U, 0x3f4674c13f3465e1U, 0x3f12ba9dc06a2a99U,
  0xbf436b11bf46e4f1U, 0x3eac652c3fc6914eU, 0x3f89a8b03f8d95a0U, 0x3f1304313f6345e1U,
  0x3f24bfb13f46857fU, 0x3f0006773f7c94d4U, 0x3f1bf8253f269d69U, 0x3ef4dc18401463f3U,
  0x3e49556c3ebde4dcU, 0x3f1aa062bf826182U, 0xc00ac53fc0158c55U, 0x3e2d4f7dbf60f719U,
  0x3fb51fcd3fa89e06U, 0x3f35c1733eea34d4U, 0xbe8b6bccbe38dad0U, 0x3ee074cfbec232c3U,
  0xbca6c983bb09ce9aU, 0x3ee081cd40016d97U, 0x3f07b4633f282e98U, 0x3f1e57443fb73dd7U,
  0x3f27249e3f2647a6U, 0x3f263e773fe78226U, 0xc00da474c01431eeU, 0x3e1e6851bf79bc1eU,
  0xbe56b817bd60a617U, 0x3ed18a633ebfe56eU, 0x40276ef1402b6b1dU, 0x3f6e66f5bfa0497bU,
  0x3fcfbe1f3fc87050U, 0x3f11d6a040737ef3U, 0x401029f740170b89U, 0x3f1bce893e0fdd11U,
  0x3e5fe0dc3e632f39U, 0x3ee5ad2abffdd2cdU, 0x3e93c1233e9909baU, 0x3ec84f41be9205baU,
  0x3f08ef223ef69f10U, 0x3f04444e3fd465e3U, 0x402466c4402244abU, 0x3f6b151fbfada767U,
  0xbce95ee73d9e6afaU, 0x3efb9badbfc5639eU, 0x40553d0940569f7fU, 0x3f6ba1f43f6fa99cU,
  0xbe8fd9bbbe9bf40aU, 0x3e7c9485bfa0e4a0U, 0xb92093a0bdb064bbU, 0x3ec31fa23ec3bad1U,
  0x3ee901d43eee6dffU, 0x3f0a213b4002d299U, 0xbed1d944beaf00c9U, 0x3ecb16ad3f0a8ef3U,
  0x3fd742af3fc42f88U, 0x3f1de5ca404f9c48U, 0xbf1d37fdbf05708dU, 0x3e8ba3a7c0647675U,
  0x3f899a613f99500fU, 0x3f1e93c93fdc598cU, 0x3eb5c8773edfd61aU, 0x3e95f4b13e31b71cU,
  0x3eac10253e0c8e6aU, 0x3eced32b3d0cf2b7U, 0x3ec296363ecb46afU, 0x3efed2353f24e279U,
  0x4024d68a4027417aU, 0x3f5b443f3ff5bf80U, 0x3f57dd593f4af9b7U, 0x3f13e6f14027595eU,
  0x400142fe3ff8d67aU, 0x3f3e043bbf9f2d1aU, 0x4006206540063081U, 0x3f31f0fe3fb20a6eU,
  0x4008028a400c245fU, 0x3f3ff5e5bf232f48U, 0x3d9d317c3e7c99e7U, 0x3e7982ebbf9689c2U,
  0x3e0e2c233c92837cU, 0x3ebf3b50c038bb25U, 0x3f22cf0c3eea58f1U, 0x3f0227423fcef406U,
  0x3ff505dc3fed634bU, 0x3f0c169ebea8d5f6U, 0x3e6e14043e8007e6U, 0x3ef91c043fada720U,
  0x40337ba8402c0e5bU, 0x3f67ab6fbf1dcc5aU, 0xbf52845cbf583f63U, 0x3e7d6644bf83b81cU,
  0xbd6533a73dfbdbd3U, 0x3eb1f7843f04270cU, 0x3eefe0c53eaa98a1U, 0x3ee3720440173b81U,
  0x3d1f3b193e197ac6U, 0x3eb6d080402d0b6dU, 0x403c35e04044d67bU, 0x3f5ce5233ffb0624U,
  0xbf13d8dfbf08e5f0U, 0x3e985535bf12cf57U, 0x3fcd7a9f3fd1a08cU, 0x3efe3e0e3f806d12U,
  0x3f8366e43f8419d7U, 0x3f175ea4bf586e6aU, 0x3e6e403b3ea75014U, 0x3e8376873f491f3aU,
  0x3ea936e83e9df83cU, 0x3f06d48fbfc0cb0bU, 0x403c2aac40389321U, 0x3f597b0c3f97a3eaU,
  0x3f676b8f3f800248U, 0x3f0c32ec400d1ee6U, 0x4040ef61404c4664U, 0x3f71d2babfafc23eU,
  0x3fe6ff803fea5dd4U, 0x3f328d9d3f9d52f7U, 0x4010f2e240100a00U, 0x3f30d2e23f6cea34U,
  0x3eab89103e8d897bU, 0x3ef1478ebf8793d0U, 0x3e8801123e5496e4U, 0x3ec6fc1d404e2bd5U,
  0x3f7b5c093f6f2a48U, 0x3f00340a400eb94cU, 0x404b8437404dc124U, 0x3f689074bf3e47eaU,
  0x3eb8009c3e28ab07U, 0x3e882461406c4357U, 0x3fde1f6d3fdb3893U, 0x3f18f3e8bf9100d4U,
  0xbe683b8fbe44958eU, 0x3ed1d10dbf7d60e8U, 0x3e9466173e16b7bcU, 0x3f00ac9fbf816826U,
  0x3ef456533f0bd410U, 0x3eecf77dc0004166U, 0x3f30ee693f089501U, 0x3ef2ae9a3f68a880U,
  0x404b7487403cd7acU, 0x3f63aa433f803e1bU, 0xbedb05efbed0588eU, 0x3ec2a6e7bf062d24U,
  0x3fa913873f99fed1U, 0x3f11e33b3ddb03eaU, 0x3f643e093f5c8cbaU, 0x3f1931e3bffefea1U,
  0x3ef643b43eeb8f0fU, 0x3ec7de80bf8fa61eU, 0x3ec1bd703ea6d7a2U, 0x3ea2756cbff4abb6U,
  0x403ba698403ba6a8U, 0x3f4589483f89d4c5U, 0x3f98dc573f97da4cU, 0x3f1fe2c2be81aff6U,
  0x401a8fce401fc36fU, 0x3f3120d7bfbc03d9U, 0x3fb9b4353f9cd436U, 0x3eb0e367407a9449U,
  0x40058d93400e0dd4U, 0x3ec9fa9a3d620b72U, 0xbd537a21bb266159U, 0x3e8bde30bffed19bU,
  0x3c0baca53d8a0f9bU, 0x3e72f5fbbe1ba620U, 0x3e9b992a3e6c8130U, 0x3e842d863fda9d26U,
  0x4020de0040203be0U, 0x3f13f407bfa69925U, 0xbd44d6acbde3f5a8U, 0x3d8d3c30bfd217f7U,
  0x404e23594047dca0U, 0x3f3f11133f60fbb3U, 0xbeb46d8fbea46377U, 0x3d210ea1bfc6498bU,
  0xbe75aee0beb62539U, 0x3d58fbca3ea7ab31U, 0x3e9036113e8223fcU, 0x3d8f900a400600f8U,
  0xbeffa739beeaeebbU, 0x3df2b1dc3f148f40U, 0x3fbec1f53fae62e1U, 0x3eedfaa94052f15dU,
  0xbf4a8249bf5810fbU, 0xbd6093ebc06e5a82U, 0x3f4c91e03f627dffU, 0x3e4edf0b3ff9eaddU,
  0x3e84370b3e47cb30U, 0x3e72ca4f3e8bb0a5U, 0xbd183e0cbe086637U, 0x3dd556863e3a3c98U,
  0x3e0741b33e5427a1U, 0x3e33bbbf3f22660cU, 0x4022893040279c10U, 0x3f1c23583fe60f41U,
  0x3f4861ef3f3176e3U, 0x3e38cddd4025baa6U, 0x3fdf16fa3fd3e134U, 0x3f0dddf4bf9dcfc8U,
  0x3ffe6f6c4004a1a4U, 0x3ee88fd03fb116afU, 0x3ff11d6b3ff44089U, 0x3f0e6d02bf0318afU,
  0x3ca91f34be1b0037U, 0x3e58bc9dbf903f66U, 0xbe6e1959bdf6dc07U, 0x3e3206cac0344ea6U,
  0x3e74431b3ef64a72U, 0x3da90c623fbfe545U, 0x3fd9030f3fdb0b64U, 0x3f07f663bebd63aeU,
  0xbe0b177b3b1de634U, 0x3e107f643fd60a20U, 0x4020e7de402db085U, 0x3ed7cacfbf677b71U,
  0xbf67304bbf5db914U, 0x3c953beebf76cecfU, 0xbe2ea138be4cd3a1U, 0x3e21dd133f1a6555U,
  0x3ddef6013e55a4edU, 0x3e587e2740213030U, 0xbcda62c9be589845U, 0x3d1d2c11403b8674U,
  0x402df657403ad7faU, 0x3f1479224002a1a3U, 0xbf750dc1bf5e969dU, 0x3e080dbabf2840feU,
  0x3fa5d7bb3fb1e2ebU, 0x3eb9136f3f8c83d6U, 0x3f6a9c303f50825fU, 0x3ea2c234bf3ea4aeU,
  0x3daa775f3dae2a8dU, 0x3db68b943f69ac61U, 0xbb4d41373e1e8ac7U, 0x3e20afa0bfc4d008U,
  0x402c810b40384ad1U, 0x3f17b8c33fae382cU, 0x3f2964da3f24aa5fU, 0x3e846fe54018eccdU,
  0x4042ae1a403de6e9U, 0x3f553f94bf984164U, 0x3fe311683fe211ecU, 0x3ef519083f8dcfebU,
  0x3ffbe8543ffaaf15U, 0x3eea5b523f793d99U, 0x3c9e00053d337557U, 0x3e5958a7bfa61fd3U,
  0xbd68c139bb98e78bU, 0x3e2dc6944055e219U, 0x3f1cb05a3f437efcU, 0x3e445cd9401d8fd1U,
  0x4041ce9b4039be6eU, 0x3f464774bf5d60f5U, 0x3e29b91e3dd6f0ffU, 0x3e144cb540675f15U,
  0x3fc00dd23fafd1caU, 0x3ed72a8abfa8b5a3U, 0xbef10a57befe17d8U, 0x3de25eb4bf87a062U,
  0x3d60137bbda3b970U, 0x3de896c1bf8d055eU, 0x3d5fb18c3e1317a3U, 0x3d3f17d5bff8f802U,
  0x3ebc7f683ebfb540U, 0x3e7b50173f68b39fU, 0x403c67674035340bU, 0x3f35a00b3f769a25U,
  0xbf2feed8bf397da7U, 0x3d93146cbf10eac3U, 0x3f62444b3f81ddd9U, 0x3ec0dd823d80d31cU,
  0x3f4e96003f3d361fU, 0x3ebf794fc005e724U, 0x3d8b66b73e1adcf4U, 0x3d8ecc64bf9dff6bU,
  0x3e1b4515bc48be51U, 0x3d2ada30bfea1179U, 0x4039136e402dd222U, 0x3ef8c54d3f9402e1U,
  0x3f6ac3973f7170d4U, 0x3e4e5111be66b39bU, 0x3c3b0640be00c5dfU, 0xbcbddd2cbd51925aU,
  0xbb37ff403ccc6db0U, 0xbc83c1c43e09cf83U, 0x3da9b7babd978cd2U, 0x3c1c64a03c623fc0U,
  0x3c8b3eb03d45397cU, 0x3c4382e03d1b15b0U, 0xbe00f9913d9ed77cU, 0x3d7b22fc3c88e0b0U,
  0x3bf6fbe0bc806ee4U, 0x3dd66750be0a067dU, 0xbe01a9da3c431810U, 0xbd0c70ea3db13d7aU,
  0xbdf67e7dbb574080U, 0x3d800fb0bdd0dc7aU, 0xbd19a46ebcc36f58U, 0x3d202ad0bd968b5eU,
  0x3dbd78cabc4add40U, 0x3d290488bc7a7460U, 0x3dadffd6bdca91bfU, 0x3de274243b51e380U,
  0xbdfaecd0bdc4ce9aU, 0xbde50e8c3dc37d5aU, 0x3e004ced3dd829bcU, 0xbcd21df83c9c6a00U,
  0x3d9fa6703d998ec2U, 0xbd8bed983d10c1b8U, 0xbde42e41bd1cc4d8U, 0x3d6ff43cbb799b40U,
  0xbde2960e3ca4c5f0U, 0xbd03b7f43c655db0U, 0xbd04f8403c505050U, 0x3dc15006bce128d8U,
  0xbdb9f7a03e0cfecfU, 0x3d0b8dd43c9f80b8U, 0xbd3cbc7ebc72f948U, 0xbd9e36d63d8eb0b8U,
  0x3d895740bda6a698U, 0xbdc7cfee3de7e89aU, 0xbde9784a3dcdc218U, 0x3dde328c3b370cc0U,
  0x3d0cb29c3cde7df0U, 0xbe00be043dbe3228U, 0xbdbf81d4be021df6U, 0xbc564188bdaa064eU,
  0x3bb44de03c8dc4f8U, 0x3c27c6b03d4aa908U, 0x3cdc31683e00519bU, 0x3c42f410be066311U,
  0xbde6af303dacfa2aU, 0xbcd42f943da2f526U, 0x3dd0138ebbae9820U, 0xbd40ed28bd53f206U,
  0x3dc4cb3a3dd3006cU, 0xbc0f5d703cb16ea8U, 0xbe0b5bce3d4fe654U, 0x3ddffa5ebd8c6b31U,
  0xbde62e78bda2e5b4U, 0x3d85c4fc3de920a6U, 0x3dfb20d6be01c643U, 0xbdf9a573bdc5c3cfU,
  0x3de095c4bddbbd04U, 0xbd8eecb63da6bfacU, 0xbc21bf40be02bf88U, 0xbe03a4d73dc12212U,
  0xbd07d526be09bb8cU, 0xbb64f9c03d897300U, 0x3dd7a54a3ce98cf0U, 0xbdf0d6c4bdc89594U,
  0x3d1013103d993542U, 0xbd296bce3ddc83e2U, 0x3df5b366bba18a60U, 0xbd0c95523dea737eU,
  0x3df63de2be03eb07U, 0x3c5310203d893802U, 0xbceda2dc3dbc39d0U, 0x3ace93803d2d0a34U,
  0x3cd329383db4f182U, 0xbd433dd83dc12710U, 0x3d151e68bdfc2712U, 0x3dca0efabd31fd1eU,
  0xbe0853c6bd302324U, 0x3dd55358bd448658U, 0xbddeb5473dd663a6U, 0xbcfdf9543df2f806U,
  0x3d33135cbe0c1403U, 0x3ccfffa03da8c8beU, 0x3d37eeac3d9ae0daU, 0x3db2b8dcb99c5000U,
  0xbe0ad5e33dc3bbb4U, 0x3e01efc3bdf6a7e6U, 0x3d321620bbdc15c0U, 0x3dac4ab8bdb508fbU,
  0xbd8aad3dbda1abd2U, 0xbdbace1fbdcbfabcU, 0x3d6bb98cbe0b1d8dU, 0x3db95200bda7e858U,
  0xbdd27b393d97711aU, 0xbdbc40083d8f7b96U, 0xbd1e29e63db45302U, 0xbac831803d1247a4U,
  0x3d2da4743d0e9ee0U, 0xbe00b55e3ddb235cU, 0x3d130f3cbcff0c08U, 0xbda2f7bcbdf8070cU,
  0x3c6f6680bd2e2a0eU, 0xbd2e823e3b731040U, 0xbde80efe3c68f980U, 0xbc144ca0bc4f4370U,
  0x3d93baf63d29ae88U, 0x3dcbbe6e3dad8d1eU, 0x3e02a83dbbd05400U, 0x3dd4f32e3da02e10U,
  0x3cf0e018bd6652f4U, 0x3cce84203cb50ff8U, 0xbdf51f8bbd18808aU, 0xbd80c25fbd3dddbaU,
  0x3d8a313a3d629a7cU, 0x3cbdf5f8bcd654b0U, 0x3da0b8303e04e05bU, 0xbe061f743d235c18U,
  0xba69e1003d41fad0U, 0x3d04766cbd807181U, 0xbdad91ca3df0a60eU, 0x3da6c0843d82fd1aU,
  0x3ff3c9e240070806U, 0x3e37e15ebfab54a9U, 0x3f52a41a3f6a0565U, 0x3cd5195440821f78U,
  0x3fe9a4c63fd960b0U, 0x3d9c8fecbe7634f5U, 0xbe730672bebd8314U, 0xbe5b988dc006aedcU,
  0xbedac6bbbe5423b1U, 0xbe349317be928c95U, 0xbe5a09b5bdc5beebU, 0xbe01c4f93fecc771U,
  0x4004286a4001e65cU, 0x3d993e19bfb23245U, 0xbf205408bf141f33U, 0xbe49f4e0bfd75bb3U,
  0x4038298a403c132dU, 0x3e84d9853f3cc247U, 0xbf563245bf5c6207U, 0xbee209f9bfd3fd62U,
  0xbf1630cbbf3eab51U, 0xbed6ced13da36d13U, 0xbe309124be8fc2e7U, 0xbeb542fa400559caU,
  0xbf66cd82bf89b58fU, 0xbec9f6ed3f1aa0f2U, 0x3f73bf133f7fde4aU, 0xbdf16eac4051f987U,
  0xbf9b7295bf98b995U, 0xbef516e5c065ca2cU, 0x3f13a2463ecae6caU, 0xbe84708040002db4U,
  0xbe66d98cbe8393d6U, 0xbde55b0f3eaaf4aeU, 0xbea7d370bef27245U, 0xbe7bdc613e9f5ecaU,
  0xbeb065bcbe7f5ff8U, 0xbe27b63c3f2ac602U, 0x4013f43a4009ba26U, 0x3e1c11823ff395bcU,
  0x3e99e29b3e4d7757U, 0xbdd0ceae402ea09eU, 0x3f9dace63fb94e50U, 0x3e097363bfa6062eU,
  0x3fd01ee43fc9144fU, 0x3def3a703f9d28a9U, 0x3fd4af873fcf354bU, 0xbba200debf05bc76U,
  0xbf145b33bf18f362U, 0xbe14e98dbf9ee96eU, 0xbed3b992bf0009f5U, 0xbe29e05fc03b6a00U,
  0x3d8304bfbd857cf6U, 0xbe7e160a3fd3e09cU, 0x3fb1dc913faf8338U, 0x3dbb001cbea4a143U,
  0xbf030920bee6fc1cU, 0xbe8548673ff28ce4U, 0x4015b4a740102c12U, 0x3e82a6a0bf7ea35eU,
  0xbfa24d0ebfb6df2bU, 0xbedf56cdbf559306U, 0xbf02e9bebf12bbdfU, 0xbe8640323f53aebeU,
  0xbe93297dbeb3e385U, 0xbe76822a401f98b1U, 0xbef00fe5bf229df9U, 0xbe1765e3403f4010U,
  0x401d4721401aefd7U, 0x3d3c1f42400bd698U, 0xbf9f78f8bfa64679U, 0xbea07ed1befe403cU,
  0x3f668e703f833eafU, 0xbc4635903f8cf1d1U, 0x3ee84c4f3ed7cf33U, 0xbe62ad4ebf11162fU,
  0xbe82b79cbedbe023U, 0xbe154be63f8507a4U, 0xbe221b50be327103U, 0xbebf09c3bfd051f6U,
  0x4026defc4022fbc9U, 0x3e0ec66f3fa1d758U, 0x3e8f52b03ec89652U, 0xbd27b3d2401bf499U,
  0x4032cfa140260193U, 0x3e87e761bfa43eaeU, 0x3f94c9d83f9797f3U, 0x3d771cc23fa1283eU,
  0x3fde0d153fcf61caU, 0xbae447b53f72372aU, 0xbeaaddc7bec0be14U, 0xbe239002bf8db2b0U,
  0xbf1d5877bf23835bU, 0xbeb357054045e268U, 0x3eba9a4c3e9e76cfU, 0xbd6eab75402001c6U,
  0x4028d3944030f962U, 0x3e484837bf89fae8U, 0xbe913a91be89f1a2U, 0xbeb14715406bc6e7U,
  0x3f7cd0763f900196U, 0xbda7501ebfd10c45U, 0xbf652953bf4152e9U, 0xbeb06295bf76eacdU,
  0xbf00bdd9bf0a6626U, 0xbe65b8bebf919d35U, 0xbea7cbf9be73edf5U, 0xbe811d65c00b8c00U,
  0x3df130133d9722d6U, 0xbea278613f75eebdU, 0x403006e040202e85U, 0x3e15a22d3f69277bU,
  0xbf99fc55bf8e1f80U, 0xbe793ca5bf0863e9U, 0x3f09ea063f2e110fU, 0xbd957d583e23d2c3U,
  0x3ecbcb863ecf7075U, 0xbe967820c00b2ba0U, 0xbea66253be78d764U, 0xbeb7a529bf90423aU,
  0xbe799a50be81f904U, 0xbeb63123c0006689U, 0x4022d7b640252a63U, 0x3e79f3fb3f998e36U,
  0x3eaf6ff83eacb369U, 0xbd2eae98bebda98cU, 0x3dfaa74a3d7bc5c0U, 0x3ccf77683de9b48aU,
  0x3dee09723ce07118U, 0x3df55e623d25628cU, 0x3d50069cbd18a4ecU, 0xbd5e55b4bdb11d82U,
  0x3d035fe8bd60893eU, 0xbcb12cbcbe0899ebU, 0xbd1da4e4bd0944ecU, 0x3df28d7ebd63b844U,
  0x3da822ec3dd1d74cU, 0x3dd9775abcc03d44U, 0x3e0838453ddfd472U, 0xbd4eefd83c159c40U,
  0xbe0b0dba3da58a26U, 0xbd58a1e8bda44c7cU, 0x3d3e73c03c59eb20U, 0xbd81b710bda1ebc2U,
  0x3d13bb78bd83c901U, 0xbe0862fbbd025f1eU, 0x3da3563a3d8543bcU, 0x3d65cdc4bd5544a8U,
  0x3c2c00b0bd01f3eaU, 0x3da5485a3d267b7cU, 0xbd62403abb5b2f80U, 0xbdd3b06f3ce59878U,
  0xbbf96f603c302490U, 0xbdecc038bd3f9b1cU, 0x3c7b35903d93b2acU, 0xbd63ba063dd6a51aU,
  0x3d9f8a883c98f518U, 0x3deb0766bd7a626aU, 0xbdc89c78bd859ea0U, 0xbdd130b93ce2bba0U,
  0x3c94c648bdd59754U, 0x3deb7a5abd8d2041U, 0x3d347e34bc8cb2acU, 0xba76bf003d922bc4U,
  0xbbb1c3803d7b9fb8U, 0xbd4c9d803da05c1eU, 0xbdfcde22bd6be4b6U, 0x3d595f683c50dcd0U,
  0x3d5843943d9e21eeU, 0xba4a82003d73eb04U, 0xbdbe3c7ebd99fe68U, 0xbd94e2383df9e086U,
  0x3d9c110ebbc0e9a0U, 0xbd515c32bde34e40U, 0xbd7a816cbdacae10U, 0xbcf609c4be0b9fa3U,
  0xbd0d44fa3c1a0960U, 0x3cdd43f83d335d38U, 0xbe0775ec3d7c1c88U, 0x3c9dc9b8bddbebefU,
  0x3d98129e3d3f67b0U, 0xbd9a86a2bde7b9d6U, 0x3b8cfb203d018d80U, 0x3cb75b08be0370d2U,
  0xbda049d83bd12520U, 0xbdedd9da3e0ac587U, 0x3bb82e00bd04d790U, 0x3d66c940be09fc70U,
  0xbbfaaca03d4e2574U, 0x3d630c68bc8e0784U, 0xbd8e93513dc65edcU, 0xbd07e610bd2c59feU,
  0x3ce08230bd581016U, 0xbc3dcc00ba647900U, 0xbdffdb34bdb78551U, 0xbd76c84cbd8fb9cdU,
  0x3d73a9803d9248fcU, 0x3d4491203dd43260U, 0x3dcacf68bddfc28cU, 0x3ba626603cad5d18U,
  0xbbefc1e0bdb36566U, 0x3da19450bd8bcfbaU, 0xbdbb42f0bdb3680cU, 0xbd7df7dabd946411U,
  0xbdc7812e3992ce00U, 0x3e053ec53c2cc9b0U, 0x3d692c78bccb7400U, 0x3da4629a3d6658a4U,
  0xbdebbd943d88ba94U, 0xbbdefcc0bca4e454U, 0x3b9f2fe0bdf4102cU, 0x3debd84e3b7909c0U,
  0xbdab5308bb85f800U, 0x3cf6bf803d89b386U, 0xbd88b47bbdc668c4U, 0xbd8922703d4f4c44U,
  0x3d81550ebdf27338U, 0xbc8752a8bdd7974aU, 0x3dad3332bddb5380U, 0x3d9ebbd83e0a7c6fU,
  0xbd7761023dee9a42U, 0x3dac6ec8bdf6785cU, 0xbc967b3c3d485848U, 0xbdcc2ee4be053301U,
  0xbd8f20ebbd915e37U, 0x3d537f94bce5173cU, 0xbd992d263de0b1d8U, 0xbd5861503d40347cU,
  0x3dd091663dc286bcU, 0x3d9eb7923de164faU, 0x3dc98590bd0b3b14U, 0x3b232cc03d98efb2U,
  0xbdc733583df967c6U, 0xbe031c543de09feeU, 0xbd81877dbad5e000U, 0x3d97fcea3d823598U,
  0x3d586ff4bcc96e74U, 0xbdf4d7d23d0b7b70U, 0xbdd313d4bd55c42eU, 0xbcabcb44bd96f4d9U,
  0xbde58d5abc4d8f50U, 0x3ce88d98bc147280U, 0x3dca64a83d266c64U, 0xbd88e54b3e0b4663U,
  0x3d8e7bd8bda13f04U, 0xbd43692ebdf37adbU, 0xbdbc52ff3cc8a120U, 0xbe03c7363cd9e4b0U,
  0x3d1d5df0bd7e15b0U, 0xbdc722e43dda7af4U, 0xbd91d1463cd4c790U, 0xbde5fc4cbc0d2110U,
  0x3c2469303e0c1631U, 0xbca87338bdbfd30aU, 0xbdfd95923d9c89a8U, 0xbd8741d9bb5415c0U,
  0xbde397da3d48572cU, 0xbbdb70203cf637b8U, 0xbdcd7522bdc93d0cU, 0xbdea7529bdc6016cU,
  0x3dc4d9c83dffb1a2U, 0x3dd7a968bd82c4b5U, 0xbcacca683d49f190U, 0x3d615eb83d41692cU,
  0xbda86cb23da85710U, 0xbdcaaf753d939066U, 0xbd00a874bca3f90cU, 0x3c19b9e03cf07428U,
  0xbdab7daebd685dc8U, 0x3d9e1d46bd200466U, 0xbdf766eabcce2940U, 0xbc1a76a03e01f9b3U,
  0xbd908c75bd8b1be7U, 0x3dcbbb203c8eb250U, 0x3cab3e983dbcff96U, 0x3c0a0550bde7c392U,
  0xbe0304913d279c68U, 0xba94e8803e0caaabU, 0x3cb2ebb03d97b8d4U, 0xbd5f9e3c3daa9f5cU,
  0xbd0b6c343e0487f7U, 0x3e06485b3dc8cfccU, 0xbdcd5f043db84d6eU, 0xbcc35594bdd7dbb4U,
  0x3d8edec8bdfb89ebU, 0x3cfc8e88bcc6931cU, 0xbd4a91063d5a544cU, 0xbdcd6aae3bf73000U,
  0xbbe927e0be0749e4U, 0xbe094ea53df43ab2U, 0x3d66673c3dd667fcU, 0x3da02fbcbacad680U,
  0x3daaea72bdbc3f04U, 0x3d9577543d3e90b8U, 0xbddbba92be092b35U, 0x3df45b4ebd3cf5c8U,
  0x3d0f40703dee73aeU, 0xbde9c62abda3dd2aU, 0xbdfb5f83bd45a1a8U, 0x3d57e69cbde7b2acU,
  0x3d6b13ec3db60f4eU, 0x3dff59da3d211434U, 0x3dbd533ebcd0716cU, 0x3dc635aebcf9a8e8U,
  0xbcfc145cbca94fb0U, 0xbdee9849bdbc3f96U, 0x3d42da88bc536668U, 0x3d2bc1583d52a624U,
  0xbdd0eed23d587320U, 0x3de2af76bd55627cU, 0x3dec29b6bdc6fd8dU, 0xbd45d1063dbfaae0U,
  0xbd9057f5bd6a9b62U, 0xbe0600f53cb0cdb8U, 0x3dfd943e3e0391fdU, 0x3d75a2f83e00a29bU,
  0x3dbd70f0bde5cdbdU, 0xbdde330c3c8e04f8U, 0x3cd5a7f83d0005b0U, 0xbd9a52303dd1aa42U,
  0x3de9bc9e3d5b0420U, 0x3c124260bde8c393U, 0x3d3ca3003db740a0U, 0xbcd2eef0ba917a00U,
  0x3e0af6373dd6d09cU, 0x3d88469a3c9c93a0U, 0x3d00e5f0bdf83c69U, 0x3cd715583dc8e02cU,
  0x3c841ea83da40a16U, 0xbdcad8d0bd9bda06U, 0x3e0b9e473def7ce2U, 0xbdb1e3283da730ceU,
  0x3c9c4ab8bd1d6346U, 0x3d838e383da3696aU, 0xbdf3ba9fbdc4f88cU, 0x3de0f6163cbb6b40U,
  0xbd18f35cbd99a016U, 0x3dbfa89a3d7d0788U, 0xbd31a86039f45400U, 0xbcacfb743d609ffcU,
  0x3bbce8e03df86ae2U, 0x3dc07ba2bd9d099aU, 0xbde5f93f3d555d5cU, 0xbce384303e076125U,
  0x3d408630bda46d12U, 0x3dbf6cb6bd5333ccU, 0x3d8999523e0a8e5bU, 0x3c9d97a03e0d140dU,
  0xbc9623bcbdbc8a71U, 0xb9d1e0003d646f78U, 0xbcacf8d83c626c60U, 0xbe05dfd8bdec154dU,
  0x3d0e9f543d014008U, 0x3dbd6f443d683ba4U, 0xbb74b700bd9f81e3U, 0xbd8cddbcbde373a5U,
  0x3d854e68bdbd1794U, 0x3cb2dda03c134200U, 0xbe055d143dd95caaU, 0x3d03a37c3ca92598U,
  0xbe0d13923de88776U, 0xbe02e673bd4ce61eU, 0x3e0475f33db5a79eU, 0x3dbbde2a3db5405cU,
  0xbd7755d8bdd7a634U, 0x3df88f2e3c4aa0a0U, 0xbd8ad0b8bdd8a69cU, 0x3c117bd03d815298U,
  0x3dc18e583e01aa61U, 0xbc3928803d8f37b0U, 0xbddb97a3be0adc03U, 0xbe047ba3bc818244U,
  0xbdfa5cc0bd2682feU, 0xbd60082a3cb0cce8U, 0xbdbd06823dd12ed4U, 0x3da7f5803d6d0cdcU,
  0xbe007a5ebd89c38eU, 0xbd57e144bc603f28U, 0x3d533f7c3df7b786U, 0xbdb67b643df30452U,
  0x3c5f4060bd51d862U, 0xba3dfa003dbe2a64U, 0x3c157ea03dc7dc92U, 0x3cdb9718bd1c236aU,
  0x3b9557e03bba7020U, 0x3ca5eea0bc29d7b0U, 0xbd2cd5403dcbd0b4U, 0x3da85bcc3d283e68U,
  0x3aeef8803c12fa50U, 0x3dfbde22bd0b2f9cU, 0x3d572c843dd7da8cU, 0xbcf1b1e43d3f9a6cU,
  0xbd9fc5683e087187U, 0x3d77611c3bb3aca0U, 0xbddb97583e061d89U, 0xbe01b469bc81fde0U,
  0xbddd4c3d3dd58a08U, 0xbdad2bce3c978ad0U, 0xbd05cd98bd9d6beaU, 0x3d9a1f64bd9b4062U,
  0xbc865b0cbde7181eU, 0xbe0aa0fc3ddfcb66U, 0xbd740d563ddbd8d0U, 0x3e0c421bbdfa13b4U,
  0x3d328b14be02d5c7U, 0xbd3299b8bde12318U, 0x3e01cb7dbb172540U, 0xbd57d524bdca0624U,
  0xbde82e58bc0e3700U, 0x3d1fe5bc3ba55b60U, 0x3d91eee2bd98a817U, 0xbc7d6680bda30c37U,
  0xbd4b4af23d32e5ecU, 0x3dbc463c3df9836eU, 0x3e0a3887bdf4909eU, 0xbdd3e71a3c1f5560U,
  0xbd1b40783d09d7a4U, 0x3da08a623dd8e668U, 0xbde387c8bae9cd80U, 0x3dc06fa43d743d7cU,
  0xbe01d6253d76b014U, 0x3db4640a3cccc280U, 0x3de0d44abc93cb38U, 0x3e0248fb3dda949aU,
  0x3d26f4d03d67ef4cU, 0xbdb7f588bd63ee40U, 0x3d16e13c3d95e838U, 0x3d4f0dc8bdad9fdcU,
  0x3db00fba3cd18380U, 0xbd3fc7003d7222ecU, 0xbd5e4dacbe055196U, 0x3dabc6b63e027781U,
  0xbd5c02e83dcf752eU, 0x3dbf55483dd724a4U, 0x3dc73770bd8ab437U, 0xbde7f0b6bd43d238U,
  0x3df54262bc2fba60U, 0x3dd389cc3e0a2047U, 0xbc54d2983dfdc642U, 0x3d803338bd17f1feU,
  0xbbe1d5e03c4ac940U, 0x3dce789abddc97b2U, 0x3d5431183e00524dU, 0x3e072761bdd064e0U,
  0xbdebb001bd40819cU, 0xbe012f0fbd2214d6U, 0xbdcc0b49bd84771bU, 0x3da028d8bdb91344U,
  0xba9c3e00bdeca313U, 0x3d87030c3c582300U, 0xbd33f2583aae8000U, 0x3e07d8f5bd1e4be6U,
  0xbd1765ca3da9374eU, 0x3d033338be0c35c5U, 0xbe0bdc06bc8d1284U, 0x3d420d6c3df2ac26U,
  0xbd832adebdb2a19cU, 0xbdf0247abd80b49cU, 0xbd77a7403cad7788U, 0x3d1076c03da920eaU,
  0xbda6589e3cb564e8U, 0x3e08ddcbbd758dbeU, 0x3e07fb3b3df3c0b2U, 0xbdc2b738bd9183f4U,
  0xbd6c0aea3d9b511aU, 0xbdb19a67bd3b2ed2U, 0x3d400748bd6e533cU, 0xbd9d00a43cfe13a8U,
  0xbdcaf1fa3dc6b800U, 0xbd31efecbdb947daU, 0xbd54f8503d1b2664U, 0x3d4cc028bd2a7418U,
  0x3c4e2630bdb4d78cU, 0x3d1a279cbc2b9e20U, 0xbdb90182bdb4f424U, 0x3ddc2cd6bdc5841dU,
  0x3d2b5898bc1b85f0U, 0x3d02390cbcb50a60U, 0xbda7ec413da9aeceU, 0xbc833e743ca52f08U,
  0xbc821f24bddfc26dU, 0x3deac556bdebf118U, 0x3ce829c0bbdcc8e0U, 0x3cd60ce83bb83520U,
  0x3dfb0ca2bd3236b6U, 0xb94cc4003d223accU, 0xbe097a803e0397e9U, 0x3e095a653df95c12U,
  0x3c70c710bdb17510U, 0x3dc86e343dbdaa7cU, 0xbd9dc54bbc54c8f0U, 0x3d9a52a23daa9128U,
  0x3c9d0e603d73edb4U, 0x3db4e086bdc10a51U, 0xbdf966a6bd8267daU, 0x3de6a956bd1c6824U,
  0xbd23fea2bbb9c620U, 0xbb2e5940bd879605U, 0xbdb871603e03d171U, 0x3d25cf583ce27688U,
  0x3dcb59883df8daf2U, 0xba233a003d5ab7f8U, 0x3ddc6624bdf5e850U, 0xbba8c1a0bd8d7c2aU,
  0x3df5a1cabd6ff3e4U, 0x3dccb34abc4c4910U, 0x3da86f5a3de4b2c6U, 0x3d4478d03d5c46bcU,
  0x3d66c4903d086f50U, 0xbe0b90533dca09dcU, 0x3d50b4883db81824U, 0x3df6075a3db48ef6U,
  0xbd988306bd849a7cU, 0xb80d20003d0d81d0U, 0xbc95c808bd142cb6U, 0xbc982a1c3be62c00U,
  0xbd5e1e583dd5c394U, 0x3c456c90bd224cc0U, 0x3df1164e3d1e0700U, 0xbd0d068ebd1808aaU,
  0x3dee0c66bbcf8120U, 0x3d895b1c3c4930e0U, 0xbd41caf0bc24dcd0U, 0x3d593f08bd397b98U,
  0xbdbfa284be01fd12U, 0x3d8d1b1a3e071443U, 0xbc399cf0bdf737edU, 0x3df7f49ebd246b86U,
  0x3db369b03dea412aU, 0x3ce34840bcbf1284U, 0xbb7024403dd2e840U, 0xbda96c19bc1c4820U,
  0x3d6163103dd3e816U, 0x3df03066bdd4f314U, 0x3d1caa2cbe080c89U, 0x3de4977a3dee340eU,
  0xbe033c8cbb60fec0U, 0xbdf4a09a3d838206U, 0xbc187a70bd301baaU, 0xbc4334b03dd98c50U,
  0x3da325123dc88618U, 0x3c5f50e03dc5821eU, 0xbdc27ae23de40c90U, 0xbdad95ecbd9b6e82U,
  0xbdca7c49bc8a6490U, 0x3ded508ebde1047cU, 0xbd9bcfc2bc52deb0U, 0xbd8729dab937ec00U,
  0xbd290fd4bd700ec2U, 0x3d122268ba04e500U, 0x3a1f5c00bcaf13b0U, 0x3dcd75c6bdb889f4U,
  0xbdc6334e3bf34d60U, 0x3d4cdd343e09b0cfU, 0x3d3880e83c3bf2b0U, 0x3c99b118bab92f00U,
  0x3ddd79063d87e66cU, 0x3d6b7a683dae06d4U, 0x3cf0d910bcd30f98U, 0x3d749bd03d84a368U,
  0xbbf5c5e0bd808e8bU, 0xbd8a436ebd3549baU, 0x3d82d574bd0dcbc6U, 0x3d9b02fa3de8529aU,
  0xbe018d5abd8b6b8dU, 0xbd3d845e3d1df978U, 0xbe0a676b3d95e3fcU, 0x3d905138be04987fU,
  0xbd173414bd9184ccU, 0xbd4a0d92bd217f92U, 0xbd94e06dbdb92349U, 0xbdd07c5e3dedf42aU,
  0x3c638000bd24bf7aU, 0x3de986723dfeba7eU, 0xbc322c10bd37d876U, 0xbe0035b8bdc96340U,
  0x3e021061bda00830U, 0x3ddddc94bd93c915U, 0x3c122870bdd55ba6U, 0x3d19e4883b6fffc0U,
  0xbd8de37a3d623d78U, 0x3d9dbc02bd447c9aU, 0xbd813bf6bd35507aU, 0xbdd5b4983cf29d78U,
  0x3ca89578bdac9f40U, 0xbde68574bd8de86bU, 0xbe0756eebde2935eU, 0x3c7852b0bdaae400U,
  0xbc9df0ec3d317d50U, 0x3d08c2acbb075580U, 0x3e02c8cb3d0bd13cU, 0x3d8d5c563dea54e2U,
  0x3cd73a68bbe03a80U, 0x3dd2e84e3d7299d8U, 0x3d03e0fcbddb0c09U, 0xbda5ea743d89f27aU,
  0xbdc8e1623d81d10eU, 0x3e0989ebbd62c0d2U, 0x3c54bf50be044db3U, 0x3c9fd008bdfa308dU,
  0xbe07c4803d5af87cU, 0x3de7fc463da3b5aaU, 0x3d5276e03df8971eU, 0x3e09dc073df764e2U,
  0x3d33a2a0bd8340eaU, 0xbd5a33b63dae0e4eU, 0x3dc5827ebc6488d0U, 0x3d9ab3583d8e1e6aU,
  0xbe09afffbdbae970U, 0xbdf724303d196230U, 0xbd8cc94abd120230U, 0xbdddaaf0bb6b1a00U,
  0x3d79bfc0bccf553cU, 0xbce66a9c3d59b198U, 0x3e05c4a33c232750U, 0x3dd95fc4bd8debd9U,
  0x3d905028bc1e8fd0U, 0xbbf0be00bd590b52U, 0x3d1f5ed83ddf5a26U, 0x3dc97886bd99fc2bU,
  0xbdf15c0d3d9d1b10U, 0x3da5ca00bde83ba8U, 0xbdb177483b14a180U, 0xbdbfc8233cfc55f8U,
  0x3a5551003d8f00b6U, 0xbcaf4ebcbdad041aU, 0x3d19759cbda44302U, 0xbe01ca2ebda847aeU,
  0x3ddc98703bb697c0U, 0x3dd91f5e3c6ed2a0U, 0xbfe41943bfe6952bU, 0x3e9488383fa5b018U,
  0xbefcc915bed768e9U, 0x3e93e190c06fb8c8U, 0xbfbc7c67bfbd1078U, 0x3e1614193dd50804U,
  0x3f3862d43f10540eU, 0x3ed8fe6d4005aac5U, 0x3f2cf8583f202039U, 0x3f26ea7b3e76b82dU,
  0x3eeb75313eea72a5U, 0x3f051b10bff3126bU, 0xbfdd0e76bfdf6e89U, 0x3d9df6723fa5ccd0U,
  0x3f309b7a3f3185d2U, 0x3f29bbe63fd3903aU, 0xc01dcc8cc02048dbU, 0xbdb4bc78bf4db16eU,
  0x3f9071c13f90557dU, 0x3f2f1c093fd06160U, 0x3f78d8f03f83c064U, 0x3f23e174bdca41eaU,
  0x3f04939e3f231a38U, 0x3ef2e5a9bffc6e64U, 0x3f90c9533f9b29c0U, 0x3efb5c59bf41ed07U,
  0xbf0f4302bf2fbf74U, 0x3ecc209fc0541482U, 0x3fa368f83fbb4efaU, 0x3f12a66b40618fd1U,
  0xbe8367dfbcd6f011U, 0x3f09a9e6c002f18fU, 0x3ec427733ec1f552U, 0x3f1f6352bee07fcfU,
  0x3f458a4c3f3cebd1U, 0x3f25fbf3beab54ffU, 0x3f1a83ff3ef8913cU, 0x3edb7f7abf158913U,
  0xbffa4bf7bff0b4d5U, 0x3de4bd65c00096faU, 0x3ca2647b3e07280fU, 0x3ee873a3c0316ac5U,
  0xbf75fb86bf7b72c2U, 0x3e23eea53f91b841U, 0xbf8ed27dbf9792f1U, 0x3e55aaf6bfa13af4U,
  0xbfa45e7bbf8e832bU, 0x3ec8c25a3e9eaec8U, 0x3f3462ec3f218d2cU, 0x3efeae903f900538U,
  0x3f73ee533f67b435U, 0x3f2cfcee404065b4U, 0x3ebd39f13ed91d88U, 0x3f1d164bbfc2b559U,
  0xbf8a020bbf8076faU, 0x3eaaf8803e27f2f9U, 0x3f519af53f5e9878U, 0x3edddc3cbfff147eU,
  0xbff98fc8bffdb150U, 0x3d9eb6a83f884508U, 0x3fc1a9ef3fc292ecU, 0x3f3b81383f66b849U,
  0x3f73d2043f6f1e19U, 0x3f231be9bf73158fU, 0x3eec83413eedf950U, 0x3f21d833c02065efU,
  0x3f57b09a3f500a2cU, 0x3f213b7ac03d121bU, 0xc00ccebbc010a915U, 0x3e4bf135c00d9e4aU,
  0x3fc8d8fd3fbccfeeU, 0x3f4b5f163ef56d62U, 0xbf1a67eabf2cd425U, 0x3ebd3fa4bf691275U,
  0xbdd9c5c7be8f473eU, 0x3f0d16fe3ee02778U, 0x3f320ade3f307261U, 0x3f0a5cd8bf813e78U,
  0x3f06364a3ee9ff9aU, 0x3f2a427d3fd0c420U, 0xc010199ac009f758U, 0x3e4ae499bf947173U,
  0xbcece6623c0fdca5U, 0x3f0e476dc01b61acU, 0xc0189187c00dea5aU, 0x3c00e25d3fa9d5e4U,
  0xbf511415bf7a8446U, 0x3eebc378bf9b9acfU, 0xbfa0441dbf971c5aU, 0x3e9bec5dbf3bd486U,
  0x3f1b755d3f2f8a6bU, 0x3ef14c493f8ff7d3U, 0x3f33c1bb3f668083U, 0x3f15aff6c04c7f2dU,
  0xbcf6996a3d0fe447U, 0x3f1ac71cc025ec4aU, 0xc00c59bfc00f0ae1U, 0x3e2562233f926786U,
  0x3f1cd9c53f0bd3d7U, 0x3efa5dc8c071651aU, 0xbf4a6842bf1dc211U, 0x3ef8037d3fdab762U,
  0x3f9ffb0f3f9d94ccU, 0x3f1879c83f6a598aU, 0x3f554ab33f4fd0a6U, 0x3ef5e19d3f8b8da3U,
  0x3ed7b8743f18eb34U, 0x3ed1ccd2401c9bc2U, 0x3ed289ee3e1b6d1dU, 0x3ee25464bf75dcc5U,
  0xc0106f48c016a4a9U, 0x3d370e3dbf8081e7U, 0x3fa1af013faf0849U, 0x3f1e28a43e66c355U,
  0xbeb43d68be30b5a4U, 0x3ed6e69ebeb801fdU, 0x3db123e23d41c925U, 0x3eec1ae94007df9aU,
  0x3ed961a83eed6616U, 0x3f0141d53fa67ac9U, 0x3f1108f23f2a4671U, 0x3f232f153ff3fb8eU,
  0xc0129d6bc00abad6U, 0x3e050e17bf8ab007U, 0xbe48e42fbdcb8d47U, 0x3f0e019f3f0ad3e3U,
  0xbc57be883ac54e00U, 0xbd73da24bddb5ec3U, 0x3d3a9bf03c523720U, 0x3cd9d8183cc57048U,
  0xbcf8c77c3ddc316eU, 0xbe035b18bca426bcU, 0x3d0940f4bdca8d14U, 0x3de413debcc85eb8U,
  0x3db76f683c4cc8f0U, 0x3db0f500bc827608U, 0x3daf0a9a3cba6030U, 0x3df8bffabdc7884aU,
  0x3e0764b93ded2032U, 0x3dfedb0ebdeef4c8U, 0x3b926c80be07b1faU, 0xbda57cdabdb6dd1fU,
  0x3cb167603dc66076U, 0x3d136f50bdcab624U, 0xbcf381283d8d2d00U, 0xbd9df99abc6651e0U,
  0x3ddc90fe3cf4dfe8U, 0xbcebfb683de07156U, 0xbdd37ee6bdd1a1f0U, 0x3d8fb922bd634fecU,
  0xbe0c14a23c106040U, 0x3cfd4e58be03c3d4U, 0x3c71b8a0bdbad974U, 0xbd4376083dc39ea6U,
  0xbe092935bdb4acf4U, 0x3dc71586bdd58e99U, 0xbe0086073d6a1f68U, 0x3ddf49fe3cc668d0U,
  0xbe0cf96a3cf9c240U, 0xbd38f996bd06fb92U, 0x3d40cb64bd9ea329U, 0xbdbcd5d0bc67ef20U,
  0x3d856cb6bda1ff34U, 0xbc5164d03d818368U, 0xbdd1879e3c890f40U, 0xbd65f8623dfce5e6U,
  0xbda3643bbdcfa998U, 0x3d69de20bcb7a410U, 0xbdaa86debd9a31f1U, 0xbc746088bd967fe1U,
  0x3cc681c03cea94e0U, 0x3d3c617cbc7d8048U, 0x3df7a05e3d782544U, 0x3d8b43bebca316b8U,
  0xbde85fb03cc74dc0U, 0x3d6d42c0bdb87a20U, 0xbd0b9318bd99ea90U, 0xbd978d3bbd943e62U,
  0x3e02e9c93b952960U, 0x3cb6dd60be0ce471U, 0xbd80877c3ddba4f0U, 0x3dfc55863dab8c26U,
  0xbd9241133d9cec56U, 0xbd21ef42bd17272aU, 0x3e04de5f3da80ffeU, 0x3d9d8d703dc708c8U,
  0xbc90d9a03ca6a0c8U, 0x3c371240bd773f8eU, 0xbdb1beb63bacf960U, 0xbdb5aaaabcdacaacU,
  0x3dc80e62be02a77dU, 0x3df5762abdebd29cU, 0xbd3fa8463c311220U, 0xbdbccd9ebcdf8228U,
  0x3cce1050bd74318aU, 0xbd9d08c23e05e835U, 0xbde5810ebd4c8902U, 0xbb0255803d30f274U,
  0x3d2bcf00bdbe6c96U, 0xbd2e849e3dba550eU, 0x3d75fcd83b47c980U, 0xbda3cede3dba42c2U,
  0xbdc9b4543d03e814U, 0xbde4fe10bdcd92b6U, 0xbc3060003d3fa718U, 0xbdc52e56be00c09cU,
  0xbc13c8e0bda0a8f0U, 0x3c238850bd452dd6U, 0xbd86e0523c90ffd8U, 0x3cdde3103d41e0fcU,
  0xbd39fad0bd95fff8U, 0x3df0b6f63d628f7cU, 0x3e0cf9c5bd873f1cU, 0xbd6840803d931edcU,
  0xbdc92faf3d9ff150U, 0x3de2b8543e02b7e7U, 0x3ddfd7aebdaa5232U, 0x3d96bd86bcf46850U,
  0xbd2a5022be075314U, 0xbd106abc3d71e928U, 0x3dfa74b6bd61cb3cU, 0x3e02649fbdc998c0U,
  0xbdee959e3df34d52U, 0x3d123e20bdd32f7eU, 0xbd870f043c04c800U, 0xbe02a6883d8e0b66U,
  0x3db5ddf6bd8335f5U, 0xbe047d8c3d84bfbeU, 0xbe09c6873b29ee40U, 0x3d9d38f83be9bda0U,
  0x3d88e572bdc12c2eU, 0xbd3ac6d23d0f1ca4U, 0xbd91441ebcd3cc84U, 0xbc61acb83dab23c8U,
  0x3dc434a83ccba730U, 0xbdae9695bca146c4U, 0xbd28105cbc91013cU, 0x3cf26658be080168U,
  0x3c8aace83d82c350U, 0x3da0f8343dfbcfcaU, 0xbda8b32ebd8d45bcU, 0x3cd353a83d8ef032U,
  0xbd30eb52bd3d7202U, 0xbdae44aa3ddbb01cU, 0xbdf45547be0715d9U, 0xbd0cffaa3d0cccdcU,
  0xbd71f3a03cea6818U, 0xbdd46bbbbc6ebbe0U, 0xbd2b117ebd1046b2U, 0x3ca8deb83d2f5bacU,
  0xbe07a2803d8680f4U, 0x3db2092cbcb5ba7cU, 0xbd9aed5f3dc76549U, 0xbc6addb4bdad07b4U,
  0xbcac1ac13d498f7dU, 0x3db3948dbe0d3d4cU, 0xbde899fcbb4511afU, 0x3d4ed565be02c76bU,
  0x3d2c1ff1bdd96795U, 0xbd7bf6253d85b824U, 0x3cdd98c13dcb8762U, 0x3c5c1f78bd971bfbU,
  0x3cbd2010bdde402bU, 0xbd33d51dbceee90eU, 0xbd9f3345be155c8fU, 0xbbf8edef3e01a12dU,
  0xbdf23ce53d9e91c9U, 0xbcb8890e3dc109e7U, 0x3df73c7fbd562483U, 0xbd0c364dbd984ea0U,
  0xbcfe1a7ebe0d6f0bU, 0xbdb79512bcffc018U, 0xbd442f37bdd8b26eU, 0xbd576ea3bde44ce5U,
  0xbd9b44573d4c21b7U, 0xbd01add03dc2f697U, 0x3da4c3c13d266dd7U, 0x3db257bebe0fc63fU,
  0x3db3372dbc7c7ae7U, 0x3dff6be33d638689U, 0xbe017e62be115360U, 0x3de990763dd3a1d9U,
  0xbe0341c73c9bf97eU, 0x3dadbe78be0f5c63U, 0x3df4b594bd159b90U, 0xbd8f5f8ebdd38bc8U,
  0x3d38d71e3de90945U, 0x3c8c87723d09fb45U, 0xbd18f72ebdb4c5e7U, 0xbe0b149bbc5a3f32U,
  0xbd932a8db9a1a243U, 0xbdaeadad3d4eb681U, 0x3caa75a4bdb55ba8U, 0xbdfebad7bcea1f2eU,
  0x3d4f20e1bd0927a3U, 0x3d9bf663bdaa6f60U, 0x3dfbcbf03df249deU, 0xbd58671fbd8490f1U,
  0x3d456f86bdea2babU, 0x3c040a1d3e13b03fU, 0x3dedaf9bbbc75300U, 0xbdab9d943e0c65e8U,
  0x3d3657183d056f7aU, 0xbbfd833fbd2f52b0U, 0xbd76a5e5be101149U, 0xbd1a1d363dac8a95U,
  0x3de96e7a3d0299bcU, 0xbd7f73733ca7b2d0U, 0x3a5362ff3c58adf6U, 0xbe10bb0a3dc6e770U,
  0xbd9f62723d8dc460U, 0xbcc021d13d8cfbdeU, 0x3db072463d27e0f3U, 0xbdbfc5923dd57210U,
  0x3de9c24abbd62914U, 0x3d5c434abd47d7ebU, 0xbdfb32893d1ed598U, 0xbddf0db33cd37c5fU,
  0xbb4d9312bd727a0fU, 0x3dcedfed3d9bf6dcU, 0xbdbb630dbccd2bcaU, 0x3d527154bd69e493U,
  0xbd2274a5be02512eU, 0x3d7f050bbe060ab4U, 0xbdb86c793c2465b4U, 0x3d664eb13d9ceec9U,
  0xbe074474bd25b919U, 0xbe0d3aafbc82a87bU, 0xbcd87097bd33df13U, 0xbc34c7783da588d1U,
  0x3d56fc483dfd4bccU, 0xbdbd6aea3d1a70fbU, 0x3c3a39903d0785d4U, 0x3cd52c173d613962U,
  0x3d89303ebda40512U, 0x3cc674463c746531U, 0xbb27fbb33c6c40d4U, 0x3d03ba933c8b8882U,
  0xbcd1aaea3c055931U, 0x3df465aabca3c0beU, 0x3d25633abd63cfafU, 0xbe0c5e08bdeb9138U,
  0x3daf796c3d36e6d7U, 0xbce040fcbc22e6d6U, 0x3d05ea14be0a8e43U, 0x3d87898f3c85e440U,
  0xbb69f024bd53d21aU, 0x3d91ceff3dad2083U, 0xbdbfcba93cd5c9cdU, 0xbd893be3bcef7b21U,
  0xbd354f023d6027e5U, 0x3d0a4edfbdf0977cU, 0x3cbbd50b3d318bb1U, 0xbe12a91a3ca8113bU,
  0xbd2e98b73dae5392U, 0xbe0ce44fbd5ce73eU, 0xbabf2f05bdadfc56U, 0xbdddf306bd653c1dU,
  0x3cbc759c3dd6986fU, 0xbd5171a3bd5856f1U, 0xbc6136653a61a503U, 0xbd91f6953ddc7f71U,
  0x3c6e06b03d200294U, 0xbe0581143e118845U, 0xbd234c823c02dac6U, 0xbd8f36b1be087535U,
  0x3d96c98ebdd8cd29U, 0xbdf4e09b3cf0aa61U, 0xbda6c956bd23cf90U, 0xbd401097bda91b5bU,
  0xbcf72bd9bd23016bU, 0xbd9980953d247310U, 0x3df7d76c3daf3378U, 0xbd0175ae3c48158fU,
  0x3d9014c23d9027e5U, 0xbe165e403cd1e382U, 0xbd89a6fd3ddcea48U, 0xbd3ffa34bd8639caU,
  0x3dbdcf423d84d9f0U, 0xbc6f80c8bd8bf7edU, 0xbcdf3afcbd258d94U, 0xbd9a48b63d342830U,
  0xbd47df283c936618U, 0x3d8e70ecbde781a6U, 0x3c6d31403e072d73U, 0xbd2e1d083d20f720U,
  0x3c7062f03df3818eU, 0xbd1403b8bda3b2dcU, 0x3dda5a0a3b5da000U, 0xbd69828e3c8d4b58U,
  0x3c35e230bdb2ed39U, 0xbdc000ce3d0b753cU, 0xbdd94292be08149aU, 0x3c8536483e0ccee1U,
  0x3acec300bdda82dcU, 0x3d835c2ebda1e928U, 0x3da5d99cbc072110U, 0x3d42d3d0be0a4fedU,
  0xbd9fbad93e03165dU, 0xbdd849a23da4841eU, 0xbd837b19bd1b4caaU, 0xbdd8abbe3e020bf9U,
  0xbd04bbbabe026b66U, 0xbdf367a73c2c4fe0U, 0xbdadec9c3d1536a8U, 0xbc08af203d861a92U,
  0x3da9fa563cc82578U, 0x3c2aeda03c939408U, 0x3e0404893d7372c4U, 0xbe0204733dce28e4U,
  0xbdd2aee6bc1cbc20U, 0x3d9dff4ebd4657ecU, 0xbd6aa6ec3daa4386U, 0x3d106c90bc028240U,
  0x3d763134bdf9c5baU, 0xbdb75aacbc893114U, 0xbdda3a9f3be081e0U, 0x3d684a34bd972019U,
  0xbcf8b9f8bd56b90cU, 0x3d85f4a83d59464cU, 0xbdd1ec24be067900U, 0x3df781b23e01fd3dU,
  0xbd88605fbccb5700U, 0x3d96ee14bd52666aU, 0xbe0d066fbd90fab1U, 0xbd32da963e0be605U,
  0xbda358423de0b430U, 0x3d031540bd594716U, 0xbcaaa7903d4e34a8U, 0xbdf40000bcac4fe8U,
  0xbc9dd0f4bd0863d6U, 0x3ddedaa43d47e5e8U, 0xba09c7003caacd88U, 0x3dc3bfda3dda1784U,
  0x3d831dba3dd546acU, 0x3e047193bcc02b58U, 0xbe048fa6bc381a70U, 0x3cf57e983d9b9b34U,
  0xbd51f3043dcac75aU, 0x3d72d3e43dc8a894U, 0xbdc3d0643d710544U, 0x3dbd7f48bcee8d2cU,
  0xbdfc3567bcb21310U, 0xbdfe04bcbd6ecfdeU, 0xbe0221e5bda3b849U, 0xbd0430a0bdff4d3dU,
  0x3d420638bdbaded4U, 0x3ccbe9a0bdabb44cU, 0x3c1ad4103ce72660U, 0x3dc57c8ebb784f80U,
  0xbc1f08f03d812d2aU, 0x3d81d9083dc9be82U, 0x3cb2ae70bd9ac50eU, 0x3d9f0920bbd0a480U,
  0xbb241b403c95e528U, 0x3d3d2d6cbcaf72d4U, 0xbce61c7cbde5b96aU, 0x3d912eeebd88191eU,
  0xbcadc86cbce68fe4U, 0xbe04d705ba996d00U, 0x3e06e20fbc32c3c0U, 0xbd638c3ebc109e40U,
  0x3df1c17abccd1c10U, 0x3d9f4ccebd2f7d8aU, 0xbe00b60a3dfef50eU, 0xbe0b77853e0a7433U,
  0xbd858ce6be053668U, 0x3d51caacbd4587c0U, 0x3c9a50203d31a258U, 0x3d80685cbce2a08cU,
  0xbdc615a8be094791U, 0x3ca04e103da9fbdaU, 0xbc5376603dcb2b98U, 0x3dc44d683dd1239eU,
  0x3d920b02bdfa4c1cU, 0xbc8a245c3d4f0558U, 0x3cdf2500bd94b662U, 0xbd49b93c3df16392U,
  0x3cfa8140bda0e474U, 0xbdfcf38fbd9f6cabU, 0x3be90ac03c378b00U, 0x3c0b9c50bc8addd4U,
  0xbc293070bcff9284U, 0x3e07e6273db4e560U, 0x3d2cbc3c3d8f9fd0U, 0x3d314fd8bb9cffa0U,
  0x3dcae8de3cfc6b18U, 0x3d5a09a0bc185be0U, 0x3d84b054bc482dd0U, 0xbcd3ac34bdcae637U,
  0x3dc4451e3c95a278U, 0x3d56c12c3d238780U, 0x3df1ba8e3d013f10U, 0xbdcdd43b3e05f3fbU,
  0x3daad330bdeff6c8U, 0xbd8509abbddcc088U, 0xbdb8a2583cf27148U, 0x3d1bc3ec3d260f8cU,
  0xbaedd780bdf5e05aU, 0x3ce5daf8bdc89568U, 0xbc359d00bda7e2e6U, 0xbddf0a3a3d94004eU,
  0xbd7719fabdf10a7eU, 0x3e0447393c9446a0U, 0xbdc593c5bda2edc8U, 0x3d7be7dcbd94c901U,
  0x3d29409c3e0243e7U, 0x3dbabc583de3bd80U, 0xbdbb7038bd5d5ec6U, 0xbddb7565be02be8fU,
  0x3c45d5703cde0370U, 0xbc1cab903c76eb10U, 0x3da60c5ebdd1a731U, 0xbb9dbac0bddaa6a2U,
  0xbdba2f363cc08480U, 0x3cfd2660bdac6658U, 0xbd423c84bd1d61b8U, 0x3d81f87a3d7f4ca8U,
  0x3d0da0443de4ace8U, 0xbd9699c4bc955b18U, 0x3e05e1c3bd883cb3U, 0xbde46c6a3c30b330U,
  0x3d769fc8bd6ea1f2U, 0x3ddfddd03dc8b304U, 0xbddddae43d940b62U, 0xbe0bbc6b3cc75208U,
  0xbdfc8ad1bca41cacU, 0x3df274de3e05e10bU, 0xbd6c4a70bd131370U, 0x3ce1cf603d8197e8U,
  0xbd903c6abd8f1627U, 0xbd2a8edc3db97300U, 0x3d85d8b43dc7a2d6U, 0xbcdbd9b43c175b70U,
  0x3dc523c8bdad3093U, 0x3dc20816bd5a2da6U, 0x3dfc215abd65f924U, 0xbd8138a7bda37b73U,
  0xbd68a1b63da7a05eU, 0x3ab3d7003a787a00U, 0xbd68870c3cd99740U, 0x3e007371bd92626cU,
  0xbde78533bdfd12c9U, 0xbd7678ca3db53a5eU, 0xbcf59fbc3be52140U, 0x3dc64770bd28ad22U,
  0x3ac0ae003da19144U, 0x3dfc6b9ebadc5780U, 0xbdad69e13c848a88U, 0xbd7c375ebe0aa800U,
  0xbacdfc80bdf53555U, 0xbd0aca9a3c321cc0U, 0x3daa8238bc11a2d0U, 0xbd3914143e043d15U,
  0x3b8032003c773c10U, 0xbdc2b41ebd122d74U, 0x3cac9030bd27473eU, 0x3dedc7223d6cf908U,
  0x3d4030943e04b78fU, 0x3c728fa0bd91c138U, 0x3cbd2ea83d447e88U, 0x3d63b0f8bdca56c5U,
  0x3e0c2827bdc17a00U, 0xbd84b8b23dc1b66cU, 0xbbe443a03dd80052U, 0xbd1a60723d8e7dceU,
  0xbcc66fc4bde21a29U, 0xbd59f2063dead94aU, 0x3c3ccc00bdb27968U, 0xbbb84d203ddc77d0U,
  0x3da74ae2bd81fdf5U, 0xbda2da62bd688952U, 0x3d8ebb6a3ac3b500U, 0x3d94ad60bde73d71U,
  0xbde2122fba641100U, 0x3e046d393d177ec4U, 0x3dd7130e3d472d88U, 0x3d621610bc944468U,
  0x3bcd10c03d261860U, 0x3df8573a3ddc4cfeU, 0xbc6854483bbeabc0U, 0xbdf7872dbd48952eU,
  0x3db29a943dc03810U, 0x3db1abe2bd60d13eU, 0xbde0e66a3d114098U, 0x3d053eb43d854928U,
  0xbcb355b43c0c0c80U, 0xbd9185e23ca413d8U, 0x3d4b4f00bda24a90U, 0x3d98098ebda3f078U,
  0xbdd21f97bdc329ccU, 0x3d8a5350bc1f9150U, 0xbd2ffea8bd01e550U, 0xbd50acaebe07e320U,
  0x3df500923d286f3cU, 0x3d34eea4bdee42cdU, 0xbe02c3b13d00f1c0U, 0x3d9678443c10eb90U,
  0xbdfa621b3dac28f0U, 0x3cf48770bd34d142U, 0x3d953dd63da317feU, 0x3d8c7502bddd6974U,
  0xbccf20843e07ee1dU, 0x3d6202e03dccbed6U, 0x3cd44a98bd907d74U, 0x3ddd15d83d9c5328U,
  0x3c59d0f0bd2bfb16U, 0xbc9359e4bdee5843U, 0x3ca13d503e09aa1fU, 0xbdca1fcebcfbd164U,
  0xbdbc99b4bdf1b061U, 0xbdc012563d849102U, 0xbe0156a23dc7912aU, 0x3df890b6bd948b41U,
  0xbdfa81bbbd51ff36U, 0xbdafac08bc5aa800U, 0xbdce43eebdee11c8U, 0x3d8eda183d8fbe40U,
  0x3d6465b8bdab060eU, 0xbca633843c2919d0U, 0x3e0a353fbcf13814U, 0x3df6de9abe001c6fU,
  0xbd294690bd9d5c4cU, 0xbdda66a5bc0ea4f0U, 0x3c519630bd591972U, 0xbd5b4b78bd0cc98cU,
  0x3d3275683d7c1d1cU, 0x3c26f140bc713460U, 0x3dacb724bd9ee01aU, 0x3d81310ebb752b40U,
  0x3f20e05a3f40fbd1U, 0x3fd22f1d3d9af182U, 0x3fb14a783fb4dfabU, 0x3ffdc5d8c04dff12U,
  0x3f3f905a3f663c1dU, 0x3fdc6ade3f135ce6U, 0x3feecbf63ff23866U, 0x3ff032e13f306a9cU,
  0x4003e4e240059f7dU, 0x4000df8bbeefa27cU, 0x3fee5e7c3ff30dc4U, 0x3ff609eebf360d6bU,
  0x3f139add3f35ede3U, 0x3fcd65183e795230U, 0x3ffebf843ffc2e45U, 0x3fe6eb0d3f23deb4U,
  0x3e493751bbe4d427U, 0x3fdb31683ec3bc12U, 0x400aed324008b514U, 0x40014fd53fbf7753U,
  0x400e9fa14002e10fU, 0x3ff034123efdf30aU, 0x3ff71d634000003aU, 0x3fffedcfbf7ab69aU,
  0x4012b85d400ba292U, 0x3ff5fe1cbf490819U, 0x3fa48f9b3fb5c006U, 0x3fdca64cbff2367bU,
  0x401bea92401363e8U, 0x3ff01a8840191d14U, 0x3fc806563fbdc6c4U, 0x3fe5f231bf41c443U,
  0x3fec69093ff6eb5dU, 0x3fff987cbf6f9189U, 0x400878443ffab1c6U, 0x3ffe3f2fbf8ba1b8U,
  0x3fe9f1943fff254aU, 0x3fef6f023ef06bf8U, 0x3f036cf03efe5f5dU, 0x3fd5dfeabf468bcfU,
  0x3fcca81a3fce7081U, 0x3ff10287bfb779a7U, 0x3f9e4bc63fa2e8b7U, 0x3fd779da3e907276U,
  0x3f876c5e3f7066abU, 0x3fdb85e6be230765U, 0x3f7c1ef53f8ff488U, 0x3fde25aebe0f6782U,
  0x4004158240083572U, 0x3fe6f41d3eacc4bcU, 0x4004353440027f02U, 0x3fe7b65f404a5a34U,
  0x3fe985173ffa0442U, 0x3ff25a88bed90d55U, 0x3f9c2aa93f8cf55fU, 0x3fd69850be960228U,
  0x400569c040063d18U, 0x3ff43dbebfda85c9U, 0x3ede1e693ef15035U, 0x3fdcdbf43fd7cf1bU,
  0x401705f44016d911U, 0x3ff21be83c5ff4c4U, 0x3ffddabc40056013U, 0x40046a97bfb2de50U,
  0x3fe5fc1340008677U, 0x3fe5a7f1bfe348f9U, 0x4008035240079129U, 0x3febb990bfcfc4e5U,
  0x3f10eb443f028271U, 0x3fe6e26cbf73848bU, 0x40163894401af464U, 0x4005452ebf13c990U,
  0x3f9eed203fb71eb4U, 0x3ff3be40beb93073U, 0x3fc268153fb58d01U, 0x3fe1f868bf34c9f7U,
  0x3ff1ec193ff8266dU, 0x3ff4c259bfc2ccf6U, 0x3ff6bad93fe9d33fU, 0x3fe707503eff3275U,
  0x3e98dfac3ea800e5U, 0x3fd75ce5be304cfaU, 0x3fd8ba9e3fe1ad20U, 0x3ffc74cdbfb33bd1U,
  0x3e07c5a63e883f11U, 0x3fd10b0d3eaa13c9U, 0x3f9b23a23fa06905U, 0x3fee1727be228ff3U,
  0x3f8168f03f8930e1U, 0x3fef23f03ec6a083U, 0x4006ce673ff85c91U, 0x3fea71ecbd69ec7eU,
  0x4007a5a340035a5eU, 0x3fecdd67bf6b42d4U, 0x3fe3c0df3fd2b4edU, 0x3ff8dc39bfd20962U,
  0x3ea1e3323e9e1d08U, 0x3fcd69713fcbc22fU, 0x4006b18640050718U, 0x3fe95142c0543a69U,
  0x3fa117df3fb0fd44U, 0x3ffaf6374002e180U, 0x400f1b8d400d7e72U, 0x3ff87d82bdade6b8U,
  0x3ff83b134000b26eU, 0x3feca4223dd64074U, 0x3ff9bf1140030255U, 0x3ff64079401397c4U,
  0x3fd2fc3c3ff28ff5U, 0x3ff68413bcca414dU, 0x3e740bfa3e8a6c28U, 0x3fe450c63ddb4389U,
  0x401074a040112907U, 0x40063a96bf1cdb4dU, 0x3fbe4d1c3fc8a60eU, 0x3fe70fd0bf6df3c6U,
  0x3fe189783fda419bU, 0x3ff929cf3fc044e2U, 0x3ffee8674000c4bbU, 0x3ff31b213fdc39dbU,
  0x400011884000fc92U, 0x3ff61c463f13be35U, 0x3ec5fc2c3efaeff5U, 0x3fd67d20bf096faaU,
  0x3fcff4463fd0c9acU, 0x3ff9f93a3f8a783cU, 0x402965f34022147bU, 0x3f615a8dbfb455faU,
  0x3fd1b7503fc6d994U, 0x3f29401a40780d89U, 0x4018cd50401aea1eU, 0x3f21ce1cbd965305U,
  0x3ea02ab73e94f4e3U, 0x3ed1a03dc007a871U, 0x3eb470ad3ed9a5d1U, 0x3f09713ebe2fab25U,
  0x3f3363013f0ec986U, 0x3f07069d3fcdeca9U, 0x4027d35040209b4dU, 0x3f6c2bffbfaec2b6U,
  0xb98299083e69c4adU, 0x3edcb5ddbfcab05dU, 0x40556119405ddf8cU, 0x3f78a0673f597df3U,
  0xbe52c1c4be839251U, 0x3eacf11dbfb89dd9U, 0xbd5f6201be008befU, 0x3e9407183e8093dcU,
  0x3ec6d79e3efb42c3U, 0x3f06fa7f400c7b8dU, 0xbea8f72cbec3a29bU, 0x3e7bd0e53f12c8c4U,
  0x3fc0d9a83fc878e2U, 0x3f33973c4050ad05U, 0xbed6510ebf1052ceU, 0x3e80765cc06629beU,
  0x3f901ace3f9f5a25U, 0x3f1bf0473ff288f9U, 0x3f08d7a33ea99d0aU, 0x3ed2b36c3ea06d87U,
  0x3eafdac83ea24672U, 0x3e9312c33da4c1e3U, 0x3eb68f2d3f020b5bU, 0x3ecc5f373f051e1cU,
  0x40286af74031db1aU, 0x3f6b26253fedd1cdU, 0x3f7277f93f877819U, 0x3ed75493401cee59U,
  0x3ffd7ed740004509U, 0x3f498b29bf8a364fU, 0x400e6dac401412c9U, 0x3f39e16a3fa97b2dU,
  0x400410cf400b7055U, 0x3f103ffcbecc0f9eU, 0x3e0d02553e96f3d3U, 0x3ec4226dbfaba63bU,
  0x3dcfdc113d45a857U, 0x3e8dd155c03cf356U, 0x3f08ddea3f006735U, 0x3f13734d3fb39773U,
  0x400560a43fecb0a6U, 0x3f1ea082bebacf56U, 0x3dc085363e23f760U, 0x3eaeaf1e3fb17244U,
  0x402db9b64033cff8U, 0x3f355b5fbf111352U, 0xbf22225bbf3119dcU, 0x3e0fae8abf827cf3U,
  0xbd954f793e3bd5f6U, 0x3e867b423f05fb66U, 0x3ec3abfe3ec0b5e8U, 0x3ea3bdbd4013f446U,
  0x3db425073e45e31eU, 0x3ed80afe40350aeaU, 0x404234924045ae7dU, 0x3f75a5164005847bU,
  0xbf276a40bf1ad968U, 0x3e27f44dbf46e205U, 0x3fd145d23fc06c4fU, 0x3f1ed5353f8f906fU,
  0x3f972a3e3f8ab053U, 0x3f141789bf41ec21U, 0x3ea2132e3edd8e69U, 0x3eea4f813f5f4e0bU,
  0x3eac7c003edc7f1cU, 0x3ef1b506bfb82e84U, 0x403faa964048ac20U, 0x3f3b769d3f933d26U,
  0x3f831f7c3f66daf0U, 0x3f070b3c400963cdU, 0x40421fab403f09d3U, 0x3f87df3cbfa6c07aU,
  0x400280993ff82859U, 0x3f042eba3f8dae4aU, 0x4012e1494017db85U, 0x3f114f993f7dac69U,
  0x3e46971b3eb7665bU, 0x3eb3889ebfa35464U, 0x3dce9f803e9250e1U, 0x3e91d2c3405666f2U,
  0x3f7688f33f5b1f64U, 0x3ee99d27401c81b1U, 0x40437ec3404bb410U, 0x3f5e8b33bf1f3c0cU,
  0x3ed702e43ea7a014U, 0x3e98b07040632140U, 0x3fd0ae983fdb4aa4U, 0x3ef9fee8bf8f8ab0U,
  0xbe64efbebe6923b8U, 0x3ee3b9bebf63e193U, 0x3da976a23e69de53U, 0x3ec86383bf75afb0U,
  0x3f1350a13efd119dU, 0x3ed5c4adc003b285U, 0x3f12b30d3f4f0c59U, 0x3f162e863f79a694U,
  0x40421030404c50c1U, 0x3f67a1913f6d7fe2U, 0xbecf9feabebe0e14U, 0x3e945d79bf1027a7U,
  0x3faa48a73fa62900U, 0x3f02447dbdb091b2U, 0x3f80255c3f82d68bU, 0x3f13a59cc00a34c3U,
  0x3ea02a6c3e90006dU, 0x3eae8725bf73a593U, 0x3edda58f3eb6391cU, 0x3ef47c4dbfecb5b7U,
  0x4035191040428612U, 0x3f3c53113f852adbU, 0x3f96f79c3f8c0354U, 0x3ee83571be884fefU,
  0xbd107d18bd326004U, 0x3dcc8fbebdb66f9cU, 0x3d821428bda49416U, 0xbc146410bda23510U,
  0x3de65d46bdcb4788U, 0x3df068fe3d7b7adcU, 0xbbc48de03dddaaf4U, 0x3db11630bcb18a18U,
  0xbd952ee73dbd7df0U, 0xbd3fc00abc9a68b8U, 0xbd8482dfbd91cf69U, 0xbcf0a3203dfddae6U,
  0xbde99581bda8676dU, 0x3d19ec6c3ccdb298U, 0xbd909aedbd2f3e78U, 0xbe0babd9bdbbb9c9U,
  0x3ce8ae60bde0f459U, 0xbcbd7440bce19620U, 0xbdeb4282bdc94de5U, 0xbe0a5fad3cae07e0U,
  0xbc6faca03d0afda0U, 0x3dfc5cdabdc52a60U, 0x3dd9cef03df8cc12U, 0xbdb3de243d0aa220U,
  0xbdafc5f8bdf424acU, 0x3d017dc0bd653100U, 0x3c2ee2203de67e4aU, 0xbbc55ca03de2d936U,
  0xbe03ed023e078523U, 0x3d419284bcd68968U, 0x3da815e2bc711ac0U, 0x3e0985afbd0d0f7aU,
  0x3a073a003d9c91a6U, 0xbdc18194bc56bdb0U, 0xbdb07961bd3d47f2U, 0x3daf32003ccef6f8U,
  0x3c4be6603db33258U, 0x3dbf541cbda01cdfU, 0xbdf8e8cfba87f600U, 0x3de0e34cbdfad060U,
  0xbd892bc63b755480U, 0xbc9cc674bd3e698eU, 0xbda3f7963dc7b96aU, 0xbddfd564bca2a690U,
  0x3bd3bf40bdbce832U, 0xbe0b323a3d7c5aacU, 0xbd7771063dada7f4U, 0x3d5d282cbdf9e4f0U,
  0x3de7e2d6bd4dd9d8U, 0x3cda7e883d3f9cd4U, 0x3d49762cbd8f389fU, 0x3d98d2a2bd51ebacU,
  0xbdf1fb08bd5ccc18U, 0x3dc0299cbcc37e3cU, 0x3c605c60bd910fcfU, 0x3d4c0e34bc8c41d0U,
  0xbc5a2ae8bdff61b4U, 0x3d3e91503e000afdU, 0x3cc96440bd2dc11eU, 0x3dfab4123ce5bef0U,
  0x3d30d5103df7a306U, 0x3d9dcb7e3d5eaedcU, 0x3cf13af8bdf91db4U, 0x3db7b6c43dfeca66U,
  0x3d5ade3c3df8b36aU, 0x3d3353443cc3c798U, 0x3d2b2de8bca81564U, 0xbde4c02d3d0056acU,
  0xbdae6a783d6e0f54U, 0xbde117893d9bb9d4U, 0xbd92c0ddbcffe344U, 0xbd0fc8343da5da66U,
  0xbdf6eeee3e0b2943U, 0x3de947d63db997b8U, 0xbdd9166ebde693d1U, 0xbddd9baebd850bb8U,
  0x3dc8d5723cc096c0U, 0x3dd985ec3d7a1690U, 0x3d11ad7cbdd5e012U, 0x3da3a2263d92ecfeU,
  0x3dc2e114bceee3d8U, 0x3d864ababdd886eaU, 0x3d1e67483d48a5f4U, 0xbd9844c2bdbc557eU,
  0x3db4b9143ce3fae0U, 0x3dd2635ebbd17440U, 0x3c7a60d0bd12566aU, 0x3d1281dcbdc54d0cU,
  0xbde43e88bd2d6846U, 0x3e0b97953da4248aU, 0xbd89d958bcc65620U, 0x3c970a40bd08cd02U,
  0x3ddac1d03db308ccU, 0x3dce69d8bc8e8048U, 0xbca75594bde0e969U, 0xbd8a5dd53da11720U,
  0xbd4fdf9cbd89d348U, 0x3ddf50be3d5349b4U, 0xbcb3595c3d57eabcU, 0xbd55fa10bc9c77b4U,
  0x3d8c2ec63d212c60U, 0xbc86cc3c3de08b74U, 0xbd95e757bdc0cdb4U, 0x3dc1182ebd8dab34U,
  0x3c3e2db03dfca6a2U, 0xbdf1a50c3ccadda8U, 0x3c6444103de9dc6aU, 0x3aaa7a803df50b46U,
  0xbcc752a43d070f08U, 0x3c51cba0bcec6708U, 0x3c9090a83e016eedU, 0x3e02058bbdb5f432U,
  0xbded712a3c348000U, 0xbde4481b3d7402c0U, 0xbd08d18e3d8bbea8U, 0x3c9c02503ded529aU,
  0xbc16c800bd8336c9U, 0xbdc2633c3af05380U, 0x3d549f08bdb24825U, 0x3c40fc903bd389e0U,
  0xbdd37c7cbde67d7fU, 0x3d2515cc3d6ec80cU, 0xbd8e39523c9b0f60U, 0xbcb1cb8cbd1f7b28U,
  0xbc6602f0be022014U, 0xbdc77d4ebc761838U, 0xbeecb37abee446eeU, 0x3f9ed71c3f7fb936U,
  0x3f158b473f27ed6dU, 0x3fb2dd4dc071971eU, 0xbe4c4503be5fff38U, 0x3fabcf783eeff367U,
  0x3fb8f3473fccce53U, 0x3fb39c423fddd72bU, 0x3fc8d4033fb9b65eU, 0x3fa7e45abe491ed1U,
  0x3f9b9c9a3fa5c409U, 0x3fa4ca9abfb08469U, 0xbec91806bed9939aU, 0x3f95cf213f56e59aU,
  0x3fdb7ec73fcb221fU, 0x3fa9ce7e3f999f6bU, 0xbf967fb0bfa3b835U, 0x3f8165c2bd0ae641U,
  0x3fed65353fe1f425U, 0x3fb5f5003fe9b484U, 0x3feb9a263fe7f3b4U, 0x3fc8fedc3ead776aU,
  0x3fb556fc3fbf33ffU, 0x3fc37301bfbf63aaU, 0x3ffb2d883fee3f6cU, 0x3fc4609fbf5b370eU,
  0x3edbd3b63f1d54acU, 0x3faae9b6c045e175U, 0x3ffa311b40008d63U, 0x3fbfc8c5404fc2cdU,
  0x3f70ff433f5e0a5fU, 0x3fa6d0f4bfde4764U, 0x3fc054933fa265b8U, 0x3fb91a87bf4c0408U,
  0x3fd187013fd407a6U, 0x3fb3281fbf1dcc30U, 0x3fc440a43fb1efcbU, 0x3fb3fa66bdd16766U,
  0xbf049710bf0edf7cU, 0x3f89b13ebfc706a3U, 0x3f89eb1a3f85ec89U, 0x3fa10f35c01f86d2U,
  0x3e8eed193e4f82a2U, 0x3faf9d9f3f2c956dU, 0x3d9655e1bc563785U, 0x3f98cf75bf69b073U,
  0x3de35d2d3e341b43U, 0x3f925d043e4ee22fU, 0x3fd322bf3fd87fe0U, 0x3fab83953f5df8b7U,
  0x3fc7502e3fdf7db1U, 0x3fb0ebaf404ef2a0U, 0x3fa635fc3fa92ff4U, 0x3fc3627bbf8d8c22U,
  0x3ea3f23d3e9acac2U, 0x3fa9072f3d1d7189U, 0x3fc39d203fceffeaU, 0x3fb75fe4c00b3b8eU,
  0xbf1a4232bf21e237U, 0x3f8de8733fcad2b9U, 0x40067f964003a645U, 0x3fc1baf83f36c5cbU,
  0x3fe46c123fcf5b79U, 0x3fae2885bf93ab34U, 0x3fa4fdcb3fbad5f5U, 0x3fb478f7c01d1a9bU,
  0x3fc21c783fce2178U, 0x3fbf6b10c02d46d0U, 0xbf20253fbf46b507U, 0x3f98fd94c00324cfU,
  0x400e4a103ff9f75dU, 0x3fc10a56bdc9b1d0U, 0x3f0129e53f291418U, 0x3f975b73bf6d6051U,
  0x3f5e273b3f778a67U, 0x3fb18029bc806130U, 0x3fd008483fbabca9U, 0x3fac296abfa17b47U,
  0x3fbd606b3fbf2fabU, 0x3fbc12c13f8f6dc1U, 0xbf38bdc3bf3bb3d9U, 0x3f90b7febf610edbU,
  0x3f72a6433f930debU, 0x3fa65aacc0065e78U, 0xbf8c1d5ebf87b4fcU, 0x3f6faed73f500c35U,
  0x3ec261fe3e9ce304U, 0x3f9ec896bf5ad16aU, 0xbd0fdb58bd423164U, 0x3f93568dbeb43fd0U,
  0x3fc5f9a23fd271e2U, 0x3fbd07783f0f66dbU, 0x3fc5fea63fd6eb45U, 0x3fb337bcc014fb16U,
  0x3f967abb3f8a85caU, 0x3fc068c2c01447b0U, 0xbf580909bf83603fU, 0x3f81d4ca3fc3fc69U,
  0x3fd2575e3fc565b8U, 0x3fb68057c0716b3fU, 0x3f0bcb6f3f1d047fU, 0x3fab13794005de3bU,
  0x3ff12f303fe18e13U, 0x3fc00dde3f07dae8U, 0x3fcfd5a43fce3900U, 0x3fa849673f4c681aU,
  0x3fb3c6923fb5a170U, 0x3fb32985402ee034U, 0x3f8d70be3fa8d325U, 0x3fb58e9cbf14f4f8U,
  0xbf6b849abf6d2f87U, 0x3f9c811bbf214b2eU, 0x3ff3e9b33ff806ebU, 0x3fb3dd27be195055U,
  0x3f6169433f5f6a40U, 0x3fb28390bf2ad16cU, 0x3f7afee03f8705c9U, 0x3fa47c593fede460U,
  0x3fbf1ac13fbcdb69U, 0x3fa918843fd3a48bU, 0x3fbd31d43fbc8ec3U, 0x3fbe9aae3fb9c8ecU,
  0xbf5be0e7bf4ca24cU, 0x3f8959e8bf4be05aU, 0x3f76fd403f729059U, 0x3fb6fa053f7014e1U,
  0x3ffcab42400bbd29U, 0x3e11bd21bfa0dd81U, 0x3f7d01e53f79ec77U, 0xbe70b7924076bccaU,
  0x3fedcce33feee788U, 0x3c24bdf5be276c7fU, 0xbea39ccabead9446U, 0xbe831143c003de60U,
  0xbe870be0bed1796dU, 0xbea09f88be6e4ddaU, 0xbe07f89fbdeb138dU, 0xbeb78dd63ff2f981U,
  0x400089b7400af47eU, 0x3cd31087bfb1327aU, 0xbf1f9a04befdaa16U, 0xbe80bd94bfd36be7U,
  0x4038b62d40365c0fU, 0x3ec93b9a3f2fa5b7U, 0xbf4e23c5bf6161cfU, 0xbeca30dfbfc9c838U,
  0xbf1ea0d8bf51b1b8U, 0xbedb5b9a3df083feU, 0xbebfafb4bebb7da2U, 0xbe3a48dc3ffa1593U,
  0xbf83167ebf8d0e17U, 0xbedac6d23ef0f52dU, 0x3f86021e3f69c2a5U, 0xbe5bb47940561e68U,
  0xbf9c43b1bf8b169eU, 0xbeb52826c066c7faU, 0x3ef011333f026b03U, 0xbdaa624e400735c4U,
  0xbe640c31be915df5U, 0xbe9d4d633edc5c1eU, 0xbf0f642abedc1e63U, 0xbebb20f53e9f1ac3U,
  0xbe614a4abe5c2c0bU, 0xbea7b4593ef7e239U, 0x4005587b400f1c4eU, 0xbceaa6b23fe4b657U,
  0x3de451873e971a43U, 0xbe4a549d402eccb8U, 0x3f9e81e83fb1495fU, 0xbdf2151dbf8ab8cdU,
  0x3fbd416d3fbb2c5bU, 0x3d9aeabe3fa0573fU, 0x3fd47e233fbe3672U, 0x3d7a9d5abf096c8aU,
  0xbec61072beeb79b8U, 0xbe5fe7b1bfa73d76U, 0xbf1e201ebef5f5d9U, 0xbe2c5c02c043685eU,
  0xbddd78a83cb57c3cU, 0xbeb33d843fb7d164U, 0x3faef9273fbad31eU, 0xbcb67890be0754aaU,
  0xbf15ab82bf004ff0U, 0xbe82caea3fd52c23U, 0x400c3c57401887b5U, 0x3e2796d5bf8045e8U,
  0xbfba0c3cbf9f6f26U, 0xbefc2e31bf87ad17U, 0xbf1d7b89bf08a464U, 0xbe604f323f3a5386U,
  0xbde3d475beb8019bU, 0xbe34c6eb4026dd4bU, 0xbef7fd0fbee38a40U, 0xbe9b8f6640486abaU,
  0x4017ee54401afb19U, 0x3e83a7284009cd43U, 0xbfa94cd8bf921375U, 0xbe9aecc9bf09a6fcU,
  0x3f60c92c3f7f459eU, 0xbe35e8a73f7d3d86U, 0x3f0c0ffc3eff4966U, 0xbddd1a65bf00e5beU,
  0xbeb1238fbec78871U, 0xbe6f303e3f6bcef2U, 0xbe45f2d0be72265aU, 0xbec4d7e7bfd05e1bU,
  0x401d945040291021U, 0x3dc813633f9b7b9dU, 0x3e200cc03e9ff383U, 0xbdc7cf5b40156fa6U,
  0x40268ab94030fc53U, 0x3e97e2eebfa803ecU, 0x3fa2686d3fabac14U, 0xbbb43ed13f916cbdU,
  0x3fdf79b03fdb1b16U, 0x3d71096f3f670af9U, 0xbec9b8babeeef4f3U, 0xbe8c5b2fbfa580f2U,
  0xbf124a97bf113b15U, 0xbeb7bd91404bfff1U, 0x3e47e2f03eaa6810U, 0xbdfc3c1d40276546U,
  0x4027312a4031742fU, 0x3e1ce37bbf8dbc86U, 0xbeb36785be9c1d5fU, 0xbea05ba440715090U,
  0x3f84d3083f8bcbd6U, 0xbe35b9d3bfc22bd0U, 0xbf7bb3d9bf81b2b4U, 0xbe78736dbf85ebe6U,
  0xbed4ac5ebecd4fc8U, 0xbedb4f12bf9310aeU, 0xbe21ab21bec4768cU, 0xbe122221c01a3a68U,
  0x3df45e17bd862c26U, 0xbe4aedcd3f75a667U, 0x4031111b4024d8bfU, 0x3dbce83a3f706cf7U,
  0xbf8e3d1bbf85b609U, 0xbf01af82bf002723U, 0x3f39df873f118b6fU, 0xbd2864c73e4dfa8bU,
  0x3e971a583ea11c22U, 0xbe31c2a6c0115816U, 0xbed0bf87be4d3a04U, 0xbe6c44f1bfaf6938U,
  0xbea7946bbe754feaU, 0xbe8b3873bfe576b9U, 0x4023c2f7401adbfeU, 0x3e3848613f7393f2U,
  0x3ebf684c3edc9badU, 0xbe37c7b3be90ade2U, 0x400b5150400d3a29U, 0x3e209fc7bfa8d9aeU,
  0x3f878e373f646024U, 0xbdfeea83407a6483U, 0x3fe7c71e3fede2afU, 0x3dde4b513d10c00cU,
  0xbe7d049fbe83ccf3U, 0xbe1eaf26c0051110U, 0xbe2d7201be3914f8U, 0xbe2a18d6be57377cU,
  0x3b9ced8cbdba79fcU, 0xbe57ec003fdfcf87U, 0x400f6b56400595a3U, 0x3dcdaac0bfa29572U,
  0xbf0d82d7bf024bd4U, 0xbe8a919fbfd1fc49U, 0x40416d744044c9fdU, 0x3ebaf61e3f46c30aU,
  0xbf3509cebf5e96caU, 0xbe8faf69bfd3f2b9U, 0xbf4885a2bf218db6U, 0xbe89d6463e54f40cU,
  0xbe2f339dbe05ca02U, 0xbe93a71b40075328U, 0xbf76a811bf4bf288U, 0xbea0a94e3efd2ecfU,
  0x3f6d8a793f8b6994U, 0xbe1217d840597a3aU, 0xbf971f5cbf83ea0aU, 0xbed55115c075ae48U,
  0x3f12a1473eda631fU, 0xbe472cce3ff4d5bcU, 0xbc4d6072bd86123bU, 0xbe70ea4e3e8bce54U,
  0xbea346e8be978260U, 0xbe2d87e13ea2ef84U, 0xbe92c671be8b1c10U, 0xbe5a7d583f0f49f9U,
  0x400b9a05400fb61eU, 0x3e50a0733fe19934U, 0x3eb6d3363e8e5ebaU, 0xbe295b7740248592U,
  0x3fc8f4d93fb48d64U, 0x3d17e0ccbf90c533U, 0x3fdc39bc3fc7ef4aU, 0x3c49ca823fb4dd4fU,
  0x3fd87ebb3fcdd8b4U, 0x3e10bd53bf025d72U, 0xbed49b64beb764deU, 0xbe8fb835bfb3896fU,
  0xbeb34ca6beec075eU, 0xbe837abbc0484165U, 0xbd93e0493d9de4a4U, 0xbe39396f3fb42163U,
  0x3fa4d3823fad346fU, 0xbb6068d2be331ad5U, 0xbee5cdcfbea6f3d9U, 0xbe1ec34d3fdf4777U,
  0x40145ce4401c3e5bU, 0x3db69746bf76fd45U, 0xbf993694bf98d3cfU, 0xbe71d974bf6614f9U,
  0xbf1ac146bf188961U, 0xbe22ed0a3f0b0f60U, 0xbd2577a1bdaef1c8U, 0xbdf434a34022e89fU,
  0xbefc949abea69509U, 0xbe1dacc94044367cU, 0x4029579d4020e360U, 0x3e4bd469400c93a4U,
  0xbf8db543bf8aead1U, 0xbebf23eebf268423U, 0x3f79b4f03f854e84U, 0xbd9cd3f83f6c4965U,
  0x3edb3aeb3ee98666U, 0xbe043173bf1d3903U, 0xbe9024cebeacfa0fU, 0xbe4ab1283f81d321U,
  0xbe73dd1ebeb63a9eU, 0xbe8d094ebfc18235U, 0x4020b817402d70c4U, 0x3ea0c66f3fad85d7U,
  0x3ea175b13ec389b2U, 0xbe1a5dd840129638U, 0x4035c19c4037b1ccU, 0x3ed5ed47bfaf1b30U,
  0x3fc05e053fa4a4eeU, 0xbd1ceb4c3f9499abU, 0x3feab5c93fe03563U, 0x3e11ddbb3f51665eU,
  0xbed6b262bee7cd8cU, 0xbdeb73adbf8f021eU, 0xbefa8e35beb261f5U, 0xbe2ce1a4404ef5eeU,
  0x3ec6f5a53e7fc729U, 0xbd8a215740273187U, 0x40266c2d4027fffaU, 0x3e83c8d9bf87f722U,
  0xbe94a810be507232U, 0xbe2c41e3407004b7U, 0x3f9f64793f853d5dU, 0xbdfb14cebfb901c2U,
  0xbf6b9322bf6ce9d1U, 0xbe808701bf6d837aU, 0xbefd0045be982232U, 0xbe6a8fa3bf80a673U,
  0xbdd99ee5be1d7289U, 0xbe9b03ddc007de96U, 0xbd2bde373db88290U, 0xbe3bdf583f56c6baU,
  0x40349a7a402e94a0U, 0x3e237e183f881ac8U, 0xbf6a3b8cbf6901aaU, 0xbe9c3e1ebed9bf74U,
  0x3f3b9b5c3f313950U, 0xbe2b322b3e261bc1U, 0x3e8395ee3eca7ce0U, 0xbd42f813c005170fU,
  0xbdbd2b46be00a5bdU, 0xbe8d4b09bfa7cf4bU, 0xbe9add35be0e233eU, 0xbd8a40f3bff8677eU,
  0x4021f62e40275b04U, 0x3e6f44eb3f8c0cfaU, 0x3edd86113edf9617U, 0xbe564107be91eafcU,
  0x3d69b344bc974970U, 0x3d952fdebd2274beU, 0x3dcac770bca4621cU, 0x3b424c003ccbf310U,
